{"type": "bpe", "merges": [["e", "r"], ["t", "h"], ["i", "n"], ["a", "n"], ["a", "t"], ["e", "s"], ["o", "n"], ["i", "s"], ["r", "e"], ["th", "e"], ["e", "n"], ["o", "r"], ["o", "u"], ["a", "l"], ["a", "r"], ["in", "g"], ["i", "t"], ["l", "e"], ["s", "t"], ["an", "d"], ["t", "o"], ["w", "h"], ["e", "d"], ["s", "er"], ["r", "o"], ["i", "c"], ["o", "f"], ["a", "c"], ["a", "s"], ["e", ":"], ["J", "o"], ["U", "ser"], ["User", ":"], ["Jo", "e:"], ["h", "e"], ["i", "on"], ["m", "e"], ["s", "e"], ["c", "o"], ["l", "i"], ["d", "e"], ["l", "y"], ["l", "o"], ["en", "t"], ["i", "l"], ["u", "n"], ["wh", "at"], ["y", "ou"], ["v", "er"], ["v", "e"], ["c", "h"], ["g", "h"], ["r", "a"], ["c", "t"], ["k", "e"], ["s", "."], ["f", "or"], ["o", "w"], ["m", "o"], ["u", "r"], ["b", "e"], ["a", "re"], ["t", "er"], ["u", "s"], ["th", "at"], ["T", "he"], ["a", "d"], ["g", "e"], ["m", "a"], ["c", "e"], ["t", "s"], ["m", "p"], ["i", "r"], ["a", "b"], ["s", "o"], ["n", "e"], ["w", "i"], ["u", "l"], ["r", "i"], ["p", "e"], ["t", "i"], ["c", "an"], ["o", "l"], ["a", "y"], ["wi", "th"], ["c", "on"], ["u", "t"], ["o", "t"], ["ou", "t"], ["es", "t"], ["u", "m"], ["o", "d"], ["e", "x"], ["on", "e"], ["ou", "n"], ["a", "p"], ["s", ","], ["d", "o"], ["p", "l"], ["al", "l"], ["s", "i"], ["a", "m"], ["gh", "t"], ["d", "i"], ["q", "u"], ["s", "h"], ["at", "ion"], ["p", "ro"], ["e", "l"], ["b", "y"], ["u", "p"], ["th", "er"], ["'", "s"], ["ro", "m"], ["es", "s"], ["es", "."], ["f", "rom"], ["i", "d"], ["o", "p"], ["w", "or"], ["f", "e"], ["li", "ke"], ["s", "p"], ["t", "r"], ["ac", "t"], ["at", "er"], ["u", "se"], ["oun", "d"], ["t", "e"], ["p", "er"], ["a", "st"], ["at", "e"], ["0", "0"], ["c", "i"], ["er", "e"], ["c", "a"], ["it", "s"], ["w", "e"], ["il", "l"], ["e", "p"], ["lo", "w"], ["I", "t"], ["l", "d"], ["it", "y"], ["T", "h"], ["on", "g"], ["c", "k"], ["is", "t"], ["an", "y"], [")", ","], ["ac", "h"], ["d", "er"], ["e", "ar"], ["a", "g"], ["u", "re"], ["you", "r"], ["n", "ot"], ["an", "g"], ["ac", "k"], ["ar", "t"], ["b", "er"], ["f", "i"], ["h", "ow"], ["h", "a"], [")", "."], ["en", "d"], ["u", "st"], ["ou", "gh"], ["st", "e"], ["es", ","], ["m", "ent"], ["p", "o"], ["ac", "e"], ["an", "t"], ["al", "ly"], ["co", "mp"], ["w", "as"], ["a", "in"], ["b", "u"], ["b", "ut"], ["in", "to"], ["wh", "en"], ["o", "m"], ["ab", "out"], ["e", "t"], ["co", "m"], ["in", "e"], ["ou", "r"], ["w", "ater"], ["st", "r"], ["c", "l"], ["he", "l"], ["n", "o"], ["s", "a"], ["le", "d"], ["f", "o"], ["in", "d"], ["ow", "n"], ["a", "k"], ["i", "g"], ["c", "al"], ["t", "y"], ["r", "es"], ["o", "ver"], ["ar", "d"], ["ver", "y"], ["li", "ght"], ["ro", "w"], ["an", "s"], ["th", "an"], ["th", "ing"], ["s", "y"], ["v", "es"], ["ct", "ion"], ["wor", "k"], ["it", "e"], ["re", "d"], ["er", "s"], ["e", "v"], ["ab", "le"], ["u", "e"], ["w", "ay"], ["i", "m"], ["v", "i"], ["ha", "ve"], ["ra", "in"], ["ca", "use"], ["as", "s"], ["p", "h"], ["co", "l"], ["f", "er"], ["s", "pe"], ["for", "m"], ["y", "ear"], ["g", "en"], ["mo", "st"], ["h", "as"], ["W", "h"], ["n", "um"], ["a", "ge"], ["o", "ther"], ["so", "me"], ["re", "ad"], ["e", "le"], ["l", "ar"], ["s", "u"], ["the", "m"], ["ti", "m"], ["r", "ough"], ["the", "y"], ["t", "w"], ["num", "ber"], ["wh", "o"], ["f", "ul"], ["ou", "s"], ["ic", "h"], ["re", "at"], ["or", "t"], ["hel", "p"], ["l", "l"], ["ti", "me"], ["g", "o"], ["n", "ing"], ["re", "e"], ["p", "r"], ["b", "o"], ["t", "en"], ["b", "l"], ["con", "t"], ["i", "f"], ["s", "m"], ["a", "ir"], ["k", "n"], ["t", "ur"], ["bu", "il"], ["E", "ar"], ["i", "ve"], ["r", "y"], ["o", "k"], ["ol", "d"], ["m", "any"], ["I", "n"], ["b", "od"], ["the", "ir"], ["t", "ing"], ["mo", "re"], ["a", "v"], ["g", "y"], ["th", "rough"], ["is", "h"], ["d", "u"], ["Ear", "th"], ["ic", "k"], ["at", "ter"], ["c", "le"], ["wh", "ere"], ["al", "s"], ["be", "cause"], ["t", "ra"], ["wh", "ich"], ["A", "n"], ["on", "ly"], ["v", "al"], ["f", "l"], ["ic", "e"], ["r", "un"], ["wh", "y"], ["g", "r"], ["c", "ar"], ["1", "9"], ["e", "very"], ["ion", "s"], ["ste", "m"], ["b", "le"], ["g", "ra"], ["d", "ay"], ["bod", "y"], ["l", "ong"], ["c", "ur"], ["i", "z"], ["d", "at"], ["ap", "p"], ["el", "l"], ["p", "t"], ["c", "he"], ["i", "ght"], ["tw", "o"], ["ge", "t"], ["or", "y"], ["o", "b"], ["sm", "all"], ["f", "ir"], ["d", "s"], ["si", "de"], ["pl", "an"], ["com", "m"], ["an", "ce"], ["in", "ter"], ["ou", "ld"], ["d", "es"], ["s", "ur"], ["'", "t"], ["in", "k"], ["i", "es"], ["w", "r"], ["re", "n"], ["as", "e"], ["at", "ch"], ["i", "le"], ["ing", "."], ["sy", "stem"], ["in", "t"], ["f", "un"], ["b", "ack"], ["us", "ed"], ["or", "s"], ["ma", "de"], ["j", "e"], ["ct", "r"], ["ic", "al"], ["e", "ach"], ["n", "s"], ["t", "al"], ["ne", "t"], ["Th", "is"], ["en", "s"], ["b", "lo"], ["op", "le"], ["v", "ing"], ["ma", "k"], ["f", "ast"], ["cal", "led"], ["fir", "st"], ["h", "i"], ["p", "ar"], ["s", "ing"], ["tim", "es"], ["l", "es"], ["an", "ge"], ["sa", "me"], ["d", "is"], ["b", "r"], ["ne", "ed"], ["g", "i"], ["c", "ent"], ["je", "ct"], ["us", "es"], ["c", "es"], ["a", "f"], ["c", "ess"], ["ma", "ke"], ["`", "."], ["p", "art"], ["a", "me"], ["ev", "en"], ["be", "t"], ["oun", "t"], ["p", "re"], ["b", "re"], ["en", "er"], ["The", "y"], ["l", "and"], ["m", "in"], ["c", "re"], ["di", "f"], ["ri", "ght"], ["ar", "m"], ["2", "0"], ["en", "ce"], ["s", "s"], ["pe", "ople"], ["ele", "ctr"], ["c", "or"], ["ex", "t"], ["le", "t"], ["d", "own"], ["l", "a"], ["ke", "ep"], ["le", "ar"], ["h", "um"], ["u", "ally"], ["Wh", "at"], ["ad", "d"], ["at", "ed"], ["g", "est"], ["i", "al"], ["a", "mp"], ["o", "me"], ["an", "im"], ["tr", "y"], ["g", "re"], ["t", "in"], ["g", "n"], ["m", "u"], ["ener", "gy"], ["ci", "ent"], ["ar", "ound"], ["f", "r"], ["us", "ing"], ["ve", "l"], ["s", "un"], ["ne", "w"], ["kn", "ow"], ["ce", "ll"], ["un", "der"], ["a", "th"], ["dat", "a"], ["fo", "re"], ["p", "s"], ["ver", "s"], ["wor", "ld"], ["00", "0"], ["g", "er"], ["j", "ust"], ["it", "."], ["e", "qu"], ["dif", "fer"], ["the", "n"], ["spe", "ci"], ["a", "u"], ["me", "m"], ["ar", "k"], ["ar", "y"], ["i", "mp"], ["ill", "ion"], ["ar", "i"], ["year", "s"], ["ul", "t"], ["t", "a"], ["b", "ig"], ["on", "s"], ["se", "t"], ["b", "rain"], ["R", "e"], ["ed", "."], ["w", "a"], ["de", "f"], ["with", "out"], ["v", "ol"], ["p", "i"], ["c", "y"], ["M", "o"], ["d", "ro"], ["mak", "es"], ["do", "es"], ["su", "b"], ["c", "ri"], ["tin", "y"], ["c", "r"], ["of", "ten"], ["s", "k"], ["sp", "ace"], ["m", "us"], ["at", "ur"], ["ing", ","], ["ke", "y"], ["buil", "d"], ["ent", "s"], ["act", "ion"], ["f", "ic"], ["t", "ri"], ["h", "o"], ["ther", "e"], ["f", "il"], ["m", "an"], ["se", "l"], ["Th", "at"], ["po", "s"], ["pro", "du"], ["ly", "."], ["mu", "ch"], ["ste", "ad"], ["fe", "el"], ["ty", "pe"], ["w", "ard"], ["e", "f"], ["st", "ar"], ["s", "qu"], ["h", "and"], ["ro", "ss"], ["in", "es"], ["at", "ing"], ["h", "y"], ["ic", "t"], ["i", "de"], ["v", "ed"], ["c", "lo"], ["g", "row"], ["b", "on"], ["fo", "od"], ["1", "0"], ["co", "de"], ["ma", "g"], ["1", "2"], ["we", "en"], ["wh", "ile"], ["in", "s"], ["differ", "ent"], ["bet", "ween"], ["at", "es"], ["e", "y"], ["af", "ter"], ["us", "h"], ["is", "ts"], ["th", "is"], ["ob", "ject"], ["Y", "ou"], ["ter", "s"], [",", "000"], ["g", "l"], ["fun", "ction"], ["s", "low"], ["c", "ap"], ["S", "t"], ["is", "e"], ["se", "e"], ["con", "d"], ["lo", "g"], ["b", "as"], ["m", "il"], ["si", "gn"], ["m", "al"], ["f", "ace"], ["be", "fore"], ["in", "side"], ["z", "e"], ["1", "8"], ["G", "o"], ["it", "er"], ["s", "up"], ["i", "a"], ["fe", "ct"], ["m", "er"], ["de", "p"], ["pr", "ess"], ["ul", "ti"], ["re", "ct"], ["p", "atter"], ["val", "ue"], ["hi", "gh"], ["x", "y"], ["blo", "od"], ["al", "so"], ["ex", "p"], ["in", "v"], ["st", "ill"], ["ch", "ange"], ["u", "d"], [")", ":"], ["w", "ere"], ["ang", "u"], ["sh", "ow"], ["to", "m"], ["pro", "cess"], ["c", "reat"], ["at", "ive"], [")", "`"], ["p", "ow"], ["of", "f"], ["t", "ell"], ["s", "ound"], ["i", "p"], ["at", "om"], ["c", "all"], ["p", "y"], ["it", "ion"], ["f", "t"], ["re", "g"], ["ty", "p"], ["end", "s"], ["m", "on"], ["ro", "ck"], ["en", "g"], ["es", "e"], ["g", "as"], ["l", "ine"], ["w", "ould"], ["sing", "le"], ["wr", "it"], ["l", "ess"], ["lo", "ok"], ["ce", "an"], ["ul", "ar"], ["v", "en"], ["d", "ist"], ["u", "b"], ["v", "ity"], ["f", "ind"], ["l", "ay"], ["Wh", "en"], ["some", "thing"], ["h", "app"], ["l", "s"], ["l", "angu"], ["er", "o"], ["le", "ts"], ["p", "ass"], ["or", "g"], ["de", "ep"], ["k", "s"], ["at", "ic"], ["er", "."], ["li", "m"], ["in", "stead"], ["f", "low"], ["at", "ure"], ["anim", "al"], ["ing", "s"], ["to", "p"], ["C", "h"], ["at", "s"], ["go", "od"], ["h", "ere"], ["un", "i"], ["F", "or"], ["re", "qu"], ["str", "ong"], ["hum", "an"], ["bre", "ak"], ["te", "mp"], ["re", "tur"], ["f", "ar"], ["time", "."], ["lar", "ge"], ["b", "it"], ["li", "fe"], ["ne", "ar"], ["n", "am"], ["m", "ulti"], ["at", "or"], ["h", "ot"], ["f", "ish"], ["n", "er"], ["s", ":"], ["col", "or"], ["pro", "te"], ["ge", "ther"], ["st", "or"], ["a", ","], ["st", "and"], ["bo", "th"], ["as", "h"], ["sel", "f"], ["t", "est"], [".", "."], ["he", "ad"], ["amp", "le"], ["E", "x"], ["lar", "gest"], ["electr", "ic"], ["re", "al"], ["h", "ard"], ["c", "ul"], ["help", "s"], ["ac", "ross"], ["buil", "t"], ["to", "o"], ["are", "d"], ["i", "re"], ["p", "ed"], ["p", "u"], ["b", "all"], ["mo", "ve"], ["o", "se"], ["ch", "ang"], ["po", "int"], ["e", "w"], ["ts", ","], ["th", "ree"], ["to", "gether"], ["g", "s"], ["s", "on"], ["n", "'t"], ["tal", "k"], ["s", "w"], ["kn", "own"], ["it", "al"], ["B", "e"], ["str", "u"], ["ag", "es"], ["v", "is"], ["t", "le"], ["sur", "face"], ["ed", ","], ["t", "ion"], ["m", "s"], ["ar", "s"], ["d", "r"], ["che", "ck"], ["le", "ep"], ["che", "m"], ["co", "me"], ["1", "00"], ["o", "cean"], ["p", "ut"], ["ver", "se"], ["y", "."], ["pl", "ace"], ["m", "atch"], ["`", ","], ["who", "le"], ["p", "ri"], ["way", "s"], ["pow", "er"], ["il", "ity"], ["ex", "act"], ["co", "ver"], ["org", "an"], ["f", "ree"], ["net", "work"], ["er", "t"], ["ch", "ar"], ["n", "ame"], ["pl", "ay"], ["gr", "ou"], ["cur", "ren"], ["f", "ound"], ["ne", "ver"], ["he", "at"], ["d", "ri"], ["ele", "ment"], ["com", "es"], ["v", "id"], ["c", "oun"], ["c", "ount"], ["fi", "le"], ["d", "en"], ["wor", "d"], ["con", "ne"], ["st", "re"], ["and", "s"], ["a", "way"], ["f", "in"], ["ic", "s"], ["lear", "n"], ["p", "ush"], ["It", "'s"], ["thing", "s"], ["re", "p"], ["o", "s"], ["m", "ater"], ["bl", "ue"], ["tr", "ans"], ["comp", "u"], ["plan", "et"], ["cri", "pt"], ["ation", "s"], ["ang", "le"], ["on", "ce"], ["m", "atter"], ["h", "old"], ["c", "u"], ["n", "ow"], ["a", "il"], ["o", "re"], ["p", "ul"], ["vol", "can"], ["mem", "ory"], ["r", "on"], ["Earth", "'s"], ["a", "w"], ["gr", "ound"], ["S", "ome"], ["me", "ans"], ["h", "u"], ["f", "our"], ["sy", "n"], ["ly", ","], ["ful", "l"], ["ak", "es"], ["1", ","], ["st", "ate"], ["li", "ve"], ["N", "o"], ["us", "ually"], ["c", "ould"], ["or", "der"], ["y", ","], ["el", "d"], ["f", "am"], ["ct", "s"], ["b", "al"], ["comm", "on"], ["m", "ar"], ["v", "ari"], ["E", "n"], ["mo", "le"], ["m", "is"], ["ac", "es"], ["patter", "n"], ["j", "o"], ["si", "ve"], ["h", "our"], ["ma", "in"], ["fi", "g"], ["ut", "ion"], ["per", "i"], ["t", "ext"], ["blo", "ck"], ["ve", "lo"], ["multi", "p"], ["ur", "ing"], ["sh", "ap"], ["st", "art"], ["re", "f"], ["c", "ry"], ["N", "A"], ["b", "in"], ["s", "leep"], ["S", "un"], ["y", "s"], ["h", "al"], ["a", "."], ["a", "ke"], ["re", "le"], ["lear", "ning"], ["b", "ur"], ["f", "lo"], ["A", "l"], ["le", "x"], ["un", "t"], ["t", "on"], ["so", "l"], ["5", "0"], ["s", "al"], ["re", "ach"], ["p", "ack"], ["xy", "gen"], ["ig", "n"], ["ation", "."], ["gen", "er"], ["at", "i"], ["langu", "age"], ["it", ","], ["s", "or"], ["r", "ound"], ["m", "illion"], ["cont", "ro"], ["m", "id"], ["T", "o"], ["an", "cient"], ["Th", "ere"], ["u", "al"], ["an", "c"], ["a", "ult"], ["ma", "th"], ["lo", "ad"], ["ma", "y"], ["ou", "d"], ["r", "or"], ["st", "ep"], ["th", "ous"], ["d", "on"], ["squ", "are"], ["mater", "ial"], ["keep", "s"], ["1", "."], ["il", "d"], ["l", "ist"], ["co", "ld"], ["hu", "ge"], ["st", "ay"], ["gra", "m"], ["me", "an"], ["sh", "a"], ["Mo", "st"], ["g", "g"], ["n", "atur"], ["pl", "ic"], ["inv", "ent"], ["o", "xygen"], ["l", "it"], ["g", "reat"], ["C", "on"], ["p", "ol"], ["un", "d"], ["fi", "x"], ["dep", "end"], ["co", "ol"], ["con", "st"], ["is", "m"], ["one", "y"], ["g", "u"], ["p", "ain"], ["fe", "w"], ["p", "op"], ["P", "y"], ["th", "ink"], ["s", "of"], ["e", "mp"], ["di", "rect"], ["volcan", "o"], ["one", "."], ["re", "l"], ["as", "k"], ["tra", "vel"], ["water", "."], ["en", "ough"], ["w", "ind"], ["ch", "o"], ["i", "gh"], ["z", "ero"], ["S", "o"], ["g", "it"], ["si", "mp"], ["act", "ually"], ["e", "."], ["w", "arm"], ["t", "able"], ["lo", "ck"], ["dro", "p"], ["temp", "er"], ["cont", "ain"], ["e", "as"], ["to", "ol"], ["ser", "ver"], ["an", "other"], ["6", "0"], ["C", "o"], ["compu", "ter"], ["mo", "on"], ["ri", "es"], ["t", "ch"], ["v", "ir"], ["l", "ast"], ["part", "ic"], ["cl", "ass"], ["fast", "er"], ["3", "."], ["uni", "verse"], ["it", "self"], ["se", "a"], ["ar", "ch"], ["A", "r"], ["b", "ase"], ["wr", "ite"], ["ab", "ility"], ["val", "u"], ["in", "cl"], ["me", "as"], ["p", "red"], ["sun", "light"], ["cle", "ar"], ["ac", "ti"], ["sha", "pe"], ["iz", "ed"], ["se", "cond"], ["e", "m"], ["it", "'s"], ["m", "ed"], ["stru", "ct"], ["number", "s"], ["def", "ault"], ["b", "s"], ["s", "pl"], ["curren", "t"], ["c", "ir"], ["op", "en"], ["u", "ser"], ["S", "p"], ["cap", "ital"], ["e", "ver"], ["a", "ther"], ["o", "id"], ["i", "th"], ["spe", "ed"], ["st", "op"], ["them", "."], ["as", "es"], ["at", "t"], ["sa", "fe"], ["D", "e"], ["m", "ic"], ["s", "c"], ["grou", "p"], ["ag", "ain"], ["I", "f"], ["gi", "ant"], ["U", "n"], ["w", "ell"], ["ro", "ot"], ["b", "ot"], ["de", "velo"], ["W", "e"], ["for", "ce"], ["s", "um"], ["cell", "s"], ["l", "in"], ["d", "a"], ["fi", "eld"], ["w", "ill"], ["i", "x"], ["typ", "es"], ["f", "act"], ["s", "cal"], ["i", "an"], ["in", "st"], ["pi", "e"], ["electric", "ity"], ["'", "."], ["run", "s"], ["de", "v"], ["P", "ro"], ["can", "not"], ["per", "cent"], ["ur", "es"], ["mo", "de"], ["de", "x"], ["thous", "ands"], ["s", "hel"], ["id", "ent"], ["w", "ant"], ["ation", ","], ["s", "ion"], ["ke", "t"], ["3", "0"], ["per", "son"], ["'", "re"], ["s", "n"], ["it", "ch"], ["O", "n"], ["gre", "en"], ["mag", "net"], ["p", "ort"], ["2", ","], ["p", "ing"], ["w", "ar"], ["b", "ir"], ["i", "ble"], ["so", "lar"], ["n", "or"], ["l", "ing"], ["al", "ong"], ["ser", "v"], ["b", "illion"], ["f", "all"], ["g", "or"], ["sh", "ip"], ["'", ","], ["gra", "vity"], ["gi", "ves"], ["h", "ist"], ["er", "s."], ["lit", "tle"], ["er", ","], ["1", "5"], ["cient", "ists"], ["qu", "er"], ["unt", "il"], ["ge", "ts"], ["hal", "f"], ["ct", "or"], ["year", "s."], ["in", "ce"], ["pro", "per"], ["ch", "an"], ["sh", "ort"], ["2", "5"], ["speci", "fic"], ["form", "s"], ["speci", "al"], ["b", "row"], ["P", "I"], ["m", "ust"], ["4", "."], ["mus", "ic"], ["Py", "th"], ["de", "c"], ["c", "ut"], ["it", "ed"], ["sp", "here"], ["si", "ze"], ["day", "."], ["equ", "al"], ["ne", "l"], ["al", "most"], ["g", "al"], ["me", "tal"], ["en", "cy"], ["natur", "al"], ["t", "ed"], ["anim", "als"], ["b", "or"], ["tur", "ns"], ["Re", "act"], ["J", "S"], ["H", "e"], ["ca", "uses"], ["s", "ay"], ["1", "6"], ["al", "ways"], ["li", "d"], ["imp", "ort"], ["qu", "id"], ["r", "u"], ["chem", "ical"], ["mo", "ving"], ["_", "_"], ["qu", "e"], ["le", "vel"], ["comm", "un"], ["ou", "th"], ["ef", "fect"], ["le", "ft"], ["m", "y"], ["g", "lo"], ["fam", "ous"], ["ment", "."], ["pl", "ain"], ["str", "ing"], ["s", "our"], ["cor", "d"], ["li", "quid"], ["ic", "ally"], ["some", "times"], ["cle", "an"], ["on", "es"], ["H", "T"], ["ac", "ts"], ["ac", "id"], ["sk", "in"], ["li", "ving"], ["l", "es."], ["Go", "od"], ["al", "k"], ["dro", "gen"], ["ample", ":"], ["um", "ent"], ["ill", "ions"], ["ag", "o"], ["d", "uring"], ["read", "s"], ["ce", "pt"], ["ex", "ist"], ["ra", "di"], ["m", "ach"], ["be", "ing"], ["ac", "ter"], ["cont", "in"], ["x", "t"], ["Y", "our"], ["re", "pe"], ["are", "n"], ["op", "er"], ["ation", "al"], ["r", "ess"], ["qu", "ick"], ["plan", "ts"], ["av", "a"], ["m", "as"], ["ta", "ke"], ["f", "ol"], ["show", "s"], ["in", "dex"], ["exact", "ly"], ["h", "is"], ["di", "vid"], ["t", "ar"], ["f", "ra"], ["E", "gy"], ["lo", "op"], ["ter", "n"], ["don", "'t"], ["se", "ver"], ["ca", "me"], ["m", "ark"], ["col", "ors"], ["D", "NA"], ["d", "ra"], ["Pyth", "on"], ["sup", "er"], ["le", "ad"], ["e", "at"], ["(", ")"], ["G", "reat"], ["happ", "en"], ["mil", "es"], ["ig", "in"], ["th", "od"], ["in", "cre"], ["av", "oid"], ["h", "er"], ["every", "thing"], ["r", "est"], ["ra", "p"], ["t", "rain"], ["mak", "ing"], ["al", "low"], ["r", "is"], ["ap", "pe"], ["S", "cript"], ["conne", "ction"], ["Ex", "ample:"], ["1", "4"], ["le", "ct"], ["p", "ath"], ["Earth", "."], ["h", "ad"], ["retur", "n"], ["di", "d"], ["or", "igin"], ["P", "o"], ["m", "ass"], ["N", "ew"], ["m", "ut"], ["M", "any"], ["cl", "oud"], ["ch", "ain"], ["th", "ese"], ["can", "'t"], ["at", "mo"], ["0", "."], ["pl", "us"], ["g", "ar"], ["A", "d"], ["l", "ater"], ["Be", "cause"], ["3", ","], ["m", "ing"], ["slow", "ly"], ["z", "ing"], ["eng", "th"], ["press", "ure"], ["ne", "ur"], ["col", "um"], ["an", "k"], ["fr", "action"], ["an", "ts"], ["n", "ight"], ["d", "y"], ["or", "ts"], ["m", "ess"], ["sub", "st"], ["pro", "gram"], ["s", "ince"], ["he", "al"], ["me", "thod"], ["hist", "ory"], ["hum", "ans"], ["k", "ind"], ["br", "an"], ["ment", "s"], ["ce", "l"], ["b", "i"], ["be", "en"], ["mo", "tion"], ["p", "res"], ["work", "s"], ["i", "es."], ["acti", "ve"], ["atmo", "sphere"], ["E", "ach"], ["th", "ough"], ["in", "form"], ["ro", "t"], ["T", "P"], ["le", "a"], ["he", "ar"], ["..", "."], ["qu", "est"], ["pl", "ant"], ["se", "par"], ["b", "ound"], ["A", "PI"], ["n", "u"], ["mo", "der"], ["res", "p"], ["fl", "at"], ["t", "reat"], ["R", "ust"], ["tr", "act"], ["r", "al"], ["car", "bon"], ["ri", "d"], ["fil", "es"], ["a", "x"], ["mem", "ber"], ["invent", "ed"], ["gra", "ph"], ["2", "."], ["run", "ning"], ["tur", "n"], ["sp", "in"], ["T", "y"], ["-", "-"], ["r", "ange"], ["si", "ble"], ["m", "ount"], ["ic", "es"], ["st", "ud"], ["bas", "ed"], ["ta", "il"], ["contro", "l"], ["shel", "l"], ["er", "ror"], ["th", "es"], ["vi", "a"], ["o", "od"], ["iz", "e"], ["m", "oney"], ["sever", "al"], ["es", "ts"], ["h", "or"], ["d", "ark"], ["n", "ess"], ["c", "ra"], ["di", "g"], ["ul", "es"], ["temper", "ature"], ["on", "."], ["cover", "ed"], ["moder", "n"], ["min", "ut"], ["la", "w"], ["spl", "it"], ["res", "h"], ["day", "s"], ["U", "se"], ["ex", "ample"], ["s", "l"], ["z", "y"], ["e", "ts"], ["n", "on"], ["b", "est"], ["bl", "ack"], ["ans", "w"], ["lay", "er"], ["c", "are"], ["hy", "drogen"], ["el", "se"], ["t", "akes"], ["sh", "are"], ["he", "art"], ["water", ","], ["car", "ry"], ["P", "l"], ["o", "c"], ["st", "at"], ["th", "ose"], ["ev", "ent"], ["ma", "ge"], ["row", "s"], ["ar", "g"], ["p", "ick"], ["g", "low"], ["f", "f"], ["ic", "a"], ["un", "it"], ["`", "/"], ["(", "'"], ["H", "ow"], ["o", "ve"], ["brow", "ser"], ["Q", "L"], ["p", "air"], ["sh", "ar"], ["o", "g"], ["W", "or"], ["19", "6"], ["retur", "ns"], ["wi", "de"], ["ne", "xt"], ["it", "ive"], ["vi", "de"], ["chang", "es"], ["u", "ro"], ["light", "."], ["world", "."], ["de", "gre"], ["l", "ink"], ["e", ","], ["in", "ts"], ["sur", "vi"], ["w", "alk"], ["lo", "t"], ["comp", "ut"], ["bet", "ter"], ["coun", "try"], ["1", "7"], ["4", ","], ["mean", "ing"], ["bran", "ch"], ["W", "ith"], ["small", "er"], ["n", "ut"], ["co", "p"], ["reg", "ular"], ["(", "`"], ["fer", "ence"], ["clo", "se"], ["small", "est"], ["ex", "press"], ["st", "ra"], ["gl", "ish"], ["m", "ind"], ["stre", "tch"], ["C", "P"], ["sh", "o"], ["d", "ang"], ["I", "ts"], ["au", "tom"], ["j", "ob"], ["m", "ix"], ["c", "li"], ["cre", "ate"], ["mo", "ves"], ["commun", "ic"], ["k", "m"], ["d", "in"], ["und", "red"], ["En", "glish"], ["atom", "s"], ["s", "and"], ["C", "om"], ["con", "fig"], ["ma", "p"], ["e", "th"], ["heal", "th"], ["o", "x"], ["k", "i"], ["p", "ast"], ["sp", "ort"], ["c", "at"], ["wh", "ite"], ["un", "e"], ["t", "ree"], ["vers", "ion"], ["c", "ise"], ["h", "arm"], ["f", "ly"], ["con", "du"], ["u", "de"], ["as", "on"], ["h", "undred"], ["st", "ri"], ["wh", "e"], ["le", "te"], ["re", "ction"], ["me", "t"], ["h", "ar"], ["li", "es"], ["(", "x"], ["ear", "ly"], ["y", "n"], ["d", "ate"], ["S", "e"], ["peri", "od"], ["fol", "low"], ["shap", "ed"], ["to", "ward"], ["cu", "le"], ["c", "atch"], ["sa", "ve"], ["system", "."], ["dist", "ance"], ["un", "g"], ["bot", "tom"], ["mole", "cule"], ["cont", "ext"], ["mo", "d"], ["8", "0"], ["o", "to"], ["sal", "t"], ["li", "ves"], ["ne", "g"], ["you", "."], ["s", "ed"], ["2", "00"], ["c", "er"], ["ren", "ch"], ["cent", "ur"], ["spe", "ak"], ["on", "ent"], ["m", "b"], ["R", "E"], ["up", "."], ["9", "."], ["f", "ail"], ["me", "l"], ["patter", "ns"], ["life", "."], ["S", "S"], ["sh", "ared"], ["S", "QL"], ["ent", "ire"], ["need", "s"], ["electr", "ons"], ["le", "ction"], ["s", "ort"], ["magnet", "ic"], ["ap", "or"], ["we", "ight"], ["writ", "ten"], ["E", "uro"], ["di", "rection"], ["dat", "ab"], ["th", "in"], ["big", "ger"], ["tri", "angle"], ["prote", "in"], ["ou", "ch"], ["S", "tr"], ["object", "s"], ["b", "its"], ["ac", "he"], ["produ", "ce"], ["stud", "y"], ["L", "e"], ["des", "ign"], ["b", "ul"], ["c", "ity"], ["sp", "ot"], ["sp", "read"], ["c", "ert"], ["si", "des"], ["p", "ur"], ["fe", "et"], ["A", "fr"], ["big", "gest"], ["tr", "ick"], ["are", "a"], ["nut", "ri"], ["re", "cord"], ["body", "."], ["b", "ow"], ["ra", "y"], ["p", "en"], ["ab", "sor"], ["U", "S"], ["r", "it"], ["w", "all"], ["inform", "ation"], ["S", "ure"], ["d", "ed"], ["v", "ent"], ["HT", "TP"], ["co", "re"], ["mount", "ain"], ["go", "ing"], ["w", "in"], ["Euro", "pe"], ["d", "ust"], ["re", "ally"], ["Sure", "!"], ["ure", "d"], ["4", "0"], ["ter", "m"], ["valu", "es"], ["pro", "ble"], ["de", "ci"], ["i", "e"], ["be", "l"], ["g", "es"], ["to", "tal"], ["g", "ive"], ["does", "n't"], ["x", "."], ["end", "ing"], ["m", "or"], ["per", "fect"], ["con", "s"], ["min", "er"], ["other", "s"], ["b", "ro"], ["al", "le"], ["sign", "al"], ["gor", "out"], ["pu", "bl"], ["O", "("], ["con", "ver"], ["t", "all"], ["ne", "ut"], ["s", "il"], ["b", "ad"], ["happ", "ens"], ["fl", "u"], ["O", "N"], ["stre", "am"], ["build", "ing"], ["ap", "art"], ["(", ")`"], ["sour", "ce"], ["P", "re"], ["vari", "able"], ["i", "um"], ["te", "ct"], ["ou", "ght"], ["h", "ind"], ["u", "mp"], ["on", "d"], ["lea", "ves"], ["me", "ters"], ["ion", "."], ["ab", "les"], ["i", "red"], ["if", "ic"], ["ame", "ter"], ["ra", "ther"], ["we", "e"], ["car", "ries"], ["cl", "es"], ["ac", "c"], ["sof", "t"], ["world", "'s"], ["d", "le"], ["c", "ed"], ["est", "ing"], ["av", "or"], ["re", "action"], ["we", "b"], ["nam", "ed"], ["ci", "al"], ["co", "py"], ["com", "bin"], ["u", "ck"], ["acter", "ia"], ["li", "p"], ["ro", "s"], ["Th", "ese"], ["ul", "l"], ["at", "ors"], ["no", "thing"], ["star", "s"], ["is", "s"], ["i", "ly"], ["pred", "ict"], ["p", "le"], ["l", "ength"], ["p", "aren"], ["s", "at"], ["l", "es,"], ["i", "mag"], ["wa", "ves"], ["d", "ou"], ["ex", "peri"], ["again", "st"], ["atic", "ally"], ["st", "ore"], ["bu", "g"], ["de", "ad"], ["ev", "ol"], ["ab", "ove"], ["t", "re"], ["ro", "om"], ["Ty", "pe"], ["av", "y"], ["ac", "cess"], ["so", "lid"], ["g", "ed"], ["be", "hind"], ["fe", "ed"], ["er", "n"], ["h", "ol"], ["o", "th"], ["b", "one"], ["neg", "ative"], ["s", "it"], ["buil", "ds"], ["colum", "n"], ["incl", "ud"], ["most", "ly"], ["en", "se"], ["es", "p"], ["k", "en"], ["up", "iter"], ["or", "bit"], ["hold", "s"], ["tr", "ack"], ["ic", "an"], ["def", "in"], ["That", "'s"], ["t", "ty"], ["fo", "c"], ["ou", "ter"], ["ra", "mid"], ["sur", "round"], ["Y", "es"], ["des", "cri"], ["power", "ful"], ["comm", "and"], ["to", "-"], ["thes", "is"], ["s", "we"], ["A", "mer"], ["ey", "es"], ["ex", "c"], ["dang", "er"], ["pie", "ce"], ["out", "."], ["se", "arch"], ["J", "ava"], ["es", ":"], ["sm", "art"], ["5", ","], ["requ", "est"], ["be", "ha"], ["cert", "ain"], ["writ", "ing"], ["pop", "ular"], ["th", "read"], ["ion", ","], ["9", "0"], ["clo", "ck"], ["stra", "ight"], ["near", "ly"], ["f", "resh"], ["wr", "ong"], ["on", ","], ["ph", "ys"], ["s", "wi"], ["mole", "cul"], ["be", "low"], ["pe", "ct"], ["age", "."], ["to", "day"], ["ul", "ts"], ["tr", "ue"], ["des", "ert"], ["h", "id"], ["wa", "it"], ["5", "."], ["Co", "mp"], ["lo", "cal"], ["c", "ross"], ["f", "u"], ["ma", "m"], ["import", "ant"], ["tell", "s"], ["rough", "ly"], ["st", "ack"], ["d", "ing"], ["co", "st"]], "vocab": {"\n": 0, " ": 1, "!": 2, "\"": 3, "#": 4, "$": 5, "%": 6, "&": 7, "'": 8, "(": 9, ")": 10, "*": 11, "+": 12, ",": 13, "-": 14, ".": 15, "/": 16, "0": 17, "1": 18, "2": 19, "3": 20, "4": 21, "5": 22, "6": 23, "7": 24, "8": 25, "9": 26, ":": 27, ";": 28, "<": 29, "=": 30, ">": 31, "?": 32, "@": 33, "A": 34, "B": 35, "C": 36, "D": 37, "E": 38, "F": 39, "G": 40, "H": 41, "I": 42, "J": 43, "K": 44, "L": 45, "M": 46, "N": 47, "O": 48, "P": 49, "Q": 50, "R": 51, "S": 52, "T": 53, "U": 54, "V": 55, "W": 56, "X": 57, "Y": 58, "Z": 59, "[": 60, "\\": 61, "]": 62, "^": 63, "_": 64, "`": 65, "a": 66, "b": 67, "c": 68, "d": 69, "e": 70, "f": 71, "g": 72, "h": 73, "i": 74, "j": 75, "k": 76, "l": 77, "m": 78, "n": 79, "o": 80, "p": 81, "q": 82, "r": 83, "s": 84, "t": 85, "u": 86, "v": 87, "w": 88, "x": 89, "y": 90, "z": 91, "{": 92, "|": 93, "}": 94, "~": 95, "\u00a3": 96, "\u00ac": 97, "\u00b0": 98, "\u00b1": 99, "\u00b2": 100, "\u00b3": 101, "\u00b5": 102, "\u00b7": 103, "\u00b9": 104, "\u00bc": 105, "\u00bd": 106, "\u00be": 107, "\u00c9": 108, "\u00d7": 109, "\u00df": 110, "\u00e0": 111, "\u00e1": 112, "\u00e3": 113, "\u00e6": 114, "\u00e7": 115, "\u00e8": 116, "\u00e9": 117, "\u00ea": 118, "\u00eb": 119, "\u00ed": 120, "\u00ee": 121, "\u00f1": 122, "\u00f3": 123, "\u00f4": 124, "\u00f6": 125, "\u00f7": 126, "\u00f8": 127, "\u00fa": 128, "\u00fb": 129, "\u00fc": 130, "\u00fe": 131, "\u0101": 132, "\u0107": 133, "\u010c": 134, "\u010d": 135, "\u014d": 136, "\u0151": 137, "\u0159": 138, "\u0177": 139, "\u02be": 140, "\u0394": 141, "\u039b": 142, "\u03a3": 143, "\u03a6": 144, "\u03a9": 145, "\u03b1": 146, "\u03b2": 147, "\u03b5": 148, "\u03b6": 149, "\u03b8": 150, "\u03bc": 151, "\u03c0": 152, "\u03c3": 153, "\u03c6": 154, "\u1d40": 155, "\u1d62": 156, "\u1d9c": 157, "\u1e25": 158, "\u1e63": 159, "\u200d": 160, "\u2013": 161, "\u2014": 162, "\u2026": 163, "\u2070": 164, "\u2074": 165, "\u2075": 166, "\u2076": 167, "\u2078": 168, "\u2079": 169, "\u207a": 170, "\u207b": 171, "\u207f": 172, "\u2080": 173, "\u2081": 174, "\u2082": 175, "\u2083": 176, "\u2084": 177, "\u2086": 178, "\u2099": 179, "\u210f": 180, "\u2135": 181, "\u215b": 182, "\u2192": 183, "\u2194": 184, "\u21d2": 185, "\u2202": 186, "\u2212": 187, "\u221a": 188, "\u221b": 189, "\u221e": 190, "\u2227": 191, "\u2228": 192, "\u2229": 193, "\u222a": 194, "\u222b": 195, "\u2248": 196, "\u2260": 197, "\u2264": 198, "\u2265": 199, "\u230a": 200, "\u230b": 201, "\u270f": 202, "\u27e9": 203, "\u304d": 204, "\u304e": 205, "\u4f98": 206, "\u5bc2": 207, "\u6590": 208, "\u751f": 209, "\u7532": 210, "\u7d99": 211, "\u91d1": 212, "\ufe0f": 213, "\ud83c\udf4c": 214, "\ud83d\udc12": 215, "\ud83d\udc66": 216, "\ud83d\udc67": 217, "\ud83d\udc68": 218, "\ud83d\udc69": 219, "\ud83d\udcac": 220, "\ud83d\udcbb": 221, "\ud83d\udcbe": 222, "\ud83d\udcc1": 223, "\ud83d\udcf7": 224, "\ud83d\udd0c": 225, "\ud83d\udd0d": 226, "\ud83d\ude02": 227, "er": 228, "th": 229, "in": 230, "an": 231, "at": 232, "es": 233, "on": 234, "is": 235, "re": 236, "the": 237, "en": 238, "or": 239, "ou": 240, "al": 241, "ar": 242, "ing": 243, "it": 244, "le": 245, "st": 246, "and": 247, "to": 248, "wh": 249, "ed": 250, "ser": 251, "ro": 252, "ic": 253, "of": 254, "ac": 255, "as": 256, "e:": 257, "Jo": 258, "User": 259, "User:": 260, "Joe:": 261, "he": 262, "ion": 263, "me": 264, "se": 265, "co": 266, "li": 267, "de": 268, "ly": 269, "lo": 270, "ent": 271, "il": 272, "un": 273, "what": 274, "you": 275, "ver": 276, "ve": 277, "ch": 278, "gh": 279, "ra": 280, "ct": 281, "ke": 282, "s.": 283, "for": 284, "ow": 285, "mo": 286, "ur": 287, "be": 288, "are": 289, "ter": 290, "us": 291, "that": 292, "The": 293, "ad": 294, "ge": 295, "ma": 296, "ce": 297, "ts": 298, "mp": 299, "ir": 300, "ab": 301, "so": 302, "ne": 303, "wi": 304, "ul": 305, "ri": 306, "pe": 307, "ti": 308, "can": 309, "ol": 310, "ay": 311, "with": 312, "con": 313, "ut": 314, "ot": 315, "out": 316, "est": 317, "um": 318, "od": 319, "ex": 320, "one": 321, "oun": 322, "ap": 323, "s,": 324, "do": 325, "pl": 326, "all": 327, "si": 328, "am": 329, "ght": 330, "di": 331, "qu": 332, "sh": 333, "ation": 334, "pro": 335, "el": 336, "by": 337, "up": 338, "ther": 339, "'s": 340, "rom": 341, "ess": 342, "es.": 343, "from": 344, "id": 345, "op": 346, "wor": 347, "fe": 348, "like": 349, "sp": 350, "tr": 351, "act": 352, "ater": 353, "use": 354, "ound": 355, "te": 356, "per": 357, "ast": 358, "ate": 359, "00": 360, "ci": 361, "ere": 362, "ca": 363, "its": 364, "we": 365, "ill": 366, "ep": 367, "low": 368, "It": 369, "ld": 370, "ity": 371, "Th": 372, "ong": 373, "ck": 374, "ist": 375, "any": 376, "),": 377, "ach": 378, "der": 379, "ear": 380, "ag": 381, "ure": 382, "your": 383, "not": 384, "ang": 385, "ack": 386, "art": 387, "ber": 388, "fi": 389, "how": 390, "ha": 391, ").": 392, "end": 393, "ust": 394, "ough": 395, "ste": 396, "es,": 397, "ment": 398, "po": 399, "ace": 400, "ant": 401, "ally": 402, "comp": 403, "was": 404, "ain": 405, "bu": 406, "but": 407, "into": 408, "when": 409, "om": 410, "about": 411, "et": 412, "com": 413, "ine": 414, "our": 415, "water": 416, "str": 417, "cl": 418, "hel": 419, "no": 420, "sa": 421, "led": 422, "fo": 423, "ind": 424, "own": 425, "ak": 426, "ig": 427, "cal": 428, "ty": 429, "res": 430, "over": 431, "ard": 432, "very": 433, "light": 434, "row": 435, "ans": 436, "than": 437, "thing": 438, "sy": 439, "ves": 440, "ction": 441, "work": 442, "ite": 443, "red": 444, "ers": 445, "ev": 446, "able": 447, "ue": 448, "way": 449, "im": 450, "vi": 451, "have": 452, "rain": 453, "cause": 454, "ass": 455, "ph": 456, "col": 457, "fer": 458, "spe": 459, "form": 460, "year": 461, "gen": 462, "most": 463, "has": 464, "Wh": 465, "num": 466, "age": 467, "other": 468, "some": 469, "read": 470, "ele": 471, "lar": 472, "su": 473, "them": 474, "tim": 475, "rough": 476, "they": 477, "tw": 478, "number": 479, "who": 480, "ful": 481, "ous": 482, "ich": 483, "reat": 484, "ort": 485, "help": 486, "ll": 487, "time": 488, "go": 489, "ning": 490, "ree": 491, "pr": 492, "bo": 493, "ten": 494, "bl": 495, "cont": 496, "if": 497, "sm": 498, "air": 499, "kn": 500, "tur": 501, "buil": 502, "Ear": 503, "ive": 504, "ry": 505, "ok": 506, "old": 507, "many": 508, "In": 509, "bod": 510, "their": 511, "ting": 512, "more": 513, "av": 514, "gy": 515, "through": 516, "ish": 517, "du": 518, "Earth": 519, "ick": 520, "atter": 521, "cle": 522, "where": 523, "als": 524, "because": 525, "tra": 526, "which": 527, "An": 528, "only": 529, "val": 530, "fl": 531, "ice": 532, "run": 533, "why": 534, "gr": 535, "car": 536, "19": 537, "every": 538, "ions": 539, "stem": 540, "ble": 541, "gra": 542, "day": 543, "body": 544, "long": 545, "cur": 546, "iz": 547, "dat": 548, "app": 549, "ell": 550, "pt": 551, "che": 552, "ight": 553, "two": 554, "get": 555, "ory": 556, "ob": 557, "small": 558, "fir": 559, "ds": 560, "side": 561, "plan": 562, "comm": 563, "ance": 564, "inter": 565, "ould": 566, "des": 567, "sur": 568, "'t": 569, "ink": 570, "ies": 571, "wr": 572, "ren": 573, "ase": 574, "atch": 575, "ile": 576, "ing.": 577, "system": 578, "int": 579, "fun": 580, "back": 581, "used": 582, "ors": 583, "made": 584, "je": 585, "ctr": 586, "ical": 587, "each": 588, "ns": 589, "tal": 590, "net": 591, "This": 592, "ens": 593, "blo": 594, "ople": 595, "ving": 596, "mak": 597, "fast": 598, "called": 599, "first": 600, "hi": 601, "par": 602, "sing": 603, "times": 604, "les": 605, "ange": 606, "same": 607, "dis": 608, "br": 609, "need": 610, "gi": 611, "cent": 612, "ject": 613, "uses": 614, "ces": 615, "af": 616, "cess": 617, "make": 618, "`.": 619, "part": 620, "ame": 621, "even": 622, "bet": 623, "ount": 624, "pre": 625, "bre": 626, "ener": 627, "They": 628, "land": 629, "min": 630, "cre": 631, "dif": 632, "right": 633, "arm": 634, "20": 635, "ence": 636, "ss": 637, "people": 638, "electr": 639, "cor": 640, "ext": 641, "let": 642, "down": 643, "la": 644, "keep": 645, "lear": 646, "hum": 647, "ually": 648, "What": 649, "add": 650, "ated": 651, "gest": 652, "ial": 653, "amp": 654, "ome": 655, "anim": 656, "try": 657, "gre": 658, "tin": 659, "gn": 660, "mu": 661, "energy": 662, "cient": 663, "around": 664, "fr": 665, "using": 666, "vel": 667, "sun": 668, "new": 669, "know": 670, "cell": 671, "under": 672, "ath": 673, "data": 674, "fore": 675, "ps": 676, "vers": 677, "world": 678, "000": 679, "ger": 680, "just": 681, "it.": 682, "equ": 683, "differ": 684, "then": 685, "speci": 686, "au": 687, "mem": 688, "ark": 689, "ary": 690, "imp": 691, "illion": 692, "ari": 693, "years": 694, "ult": 695, "ta": 696, "big": 697, "ons": 698, "set": 699, "brain": 700, "Re": 701, "ed.": 702, "wa": 703, "def": 704, "without": 705, "vol": 706, "pi": 707, "cy": 708, "Mo": 709, "dro": 710, "makes": 711, "does": 712, "sub": 713, "cri": 714, "tiny": 715, "cr": 716, "often": 717, "sk": 718, "space": 719, "mus": 720, "atur": 721, "ing,": 722, "key": 723, "build": 724, "ents": 725, "action": 726, "fic": 727, "tri": 728, "ho": 729, "there": 730, "fil": 731, "man": 732, "sel": 733, "That": 734, "pos": 735, "produ": 736, "ly.": 737, "much": 738, "stead": 739, "feel": 740, "type": 741, "ward": 742, "ef": 743, "star": 744, "squ": 745, "hand": 746, "ross": 747, "ines": 748, "ating": 749, "hy": 750, "ict": 751, "ide": 752, "ved": 753, "clo": 754, "grow": 755, "bon": 756, "food": 757, "10": 758, "code": 759, "mag": 760, "12": 761, "ween": 762, "while": 763, "ins": 764, "different": 765, "between": 766, "ates": 767, "ey": 768, "after": 769, "ush": 770, "ists": 771, "this": 772, "object": 773, "You": 774, "ters": 775, ",000": 776, "gl": 777, "function": 778, "slow": 779, "cap": 780, "St": 781, "ise": 782, "see": 783, "cond": 784, "log": 785, "bas": 786, "mil": 787, "sign": 788, "mal": 789, "face": 790, "before": 791, "inside": 792, "ze": 793, "18": 794, "Go": 795, "iter": 796, "sup": 797, "ia": 798, "fect": 799, "mer": 800, "dep": 801, "press": 802, "ulti": 803, "rect": 804, "patter": 805, "value": 806, "high": 807, "xy": 808, "blood": 809, "also": 810, "exp": 811, "inv": 812, "still": 813, "change": 814, "ud": 815, "):": 816, "were": 817, "angu": 818, "show": 819, "tom": 820, "process": 821, "creat": 822, "ative": 823, ")`": 824, "pow": 825, "off": 826, "tell": 827, "sound": 828, "ip": 829, "atom": 830, "call": 831, "py": 832, "ition": 833, "ft": 834, "reg": 835, "typ": 836, "ends": 837, "mon": 838, "rock": 839, "eng": 840, "ese": 841, "gas": 842, "line": 843, "would": 844, "single": 845, "writ": 846, "less": 847, "look": 848, "cean": 849, "ular": 850, "ven": 851, "dist": 852, "ub": 853, "vity": 854, "find": 855, "lay": 856, "When": 857, "something": 858, "happ": 859, "ls": 860, "langu": 861, "ero": 862, "lets": 863, "pass": 864, "org": 865, "deep": 866, "ks": 867, "atic": 868, "er.": 869, "lim": 870, "instead": 871, "flow": 872, "ature": 873, "animal": 874, "ings": 875, "top": 876, "Ch": 877, "ats": 878, "good": 879, "here": 880, "uni": 881, "For": 882, "requ": 883, "strong": 884, "human": 885, "break": 886, "temp": 887, "retur": 888, "far": 889, "time.": 890, "large": 891, "bit": 892, "life": 893, "near": 894, "nam": 895, "multi": 896, "ator": 897, "hot": 898, "fish": 899, "ner": 900, "s:": 901, "color": 902, "prote": 903, "gether": 904, "stor": 905, "a,": 906, "stand": 907, "both": 908, "ash": 909, "self": 910, "test": 911, "..": 912, "head": 913, "ample": 914, "Ex": 915, "largest": 916, "electric": 917, "real": 918, "hard": 919, "cul": 920, "helps": 921, "across": 922, "built": 923, "too": 924, "ared": 925, "ire": 926, "ped": 927, "pu": 928, "ball": 929, "move": 930, "ose": 931, "chang": 932, "point": 933, "ew": 934, "ts,": 935, "three": 936, "together": 937, "gs": 938, "son": 939, "n't": 940, "talk": 941, "sw": 942, "known": 943, "ital": 944, "Be": 945, "stru": 946, "ages": 947, "vis": 948, "tle": 949, "surface": 950, "ed,": 951, "tion": 952, "ms": 953, "ars": 954, "dr": 955, "check": 956, "leep": 957, "chem": 958, "come": 959, "100": 960, "ocean": 961, "put": 962, "verse": 963, "y.": 964, "place": 965, "match": 966, "`,": 967, "whole": 968, "pri": 969, "ways": 970, "power": 971, "ility": 972, "exact": 973, "cover": 974, "organ": 975, "free": 976, "network": 977, "ert": 978, "char": 979, "name": 980, "play": 981, "grou": 982, "curren": 983, "found": 984, "never": 985, "heat": 986, "dri": 987, "element": 988, "comes": 989, "vid": 990, "coun": 991, "count": 992, "file": 993, "den": 994, "word": 995, "conne": 996, "stre": 997, "ands": 998, "away": 999, "fin": 1000, "ics": 1001, "learn": 1002, "push": 1003, "It's": 1004, "things": 1005, "rep": 1006, "os": 1007, "mater": 1008, "blue": 1009, "trans": 1010, "compu": 1011, "planet": 1012, "cript": 1013, "ations": 1014, "angle": 1015, "once": 1016, "matter": 1017, "hold": 1018, "cu": 1019, "now": 1020, "ail": 1021, "ore": 1022, "pul": 1023, "volcan": 1024, "memory": 1025, "ron": 1026, "Earth's": 1027, "aw": 1028, "ground": 1029, "Some": 1030, "means": 1031, "hu": 1032, "four": 1033, "syn": 1034, "ly,": 1035, "full": 1036, "akes": 1037, "1,": 1038, "state": 1039, "live": 1040, "No": 1041, "usually": 1042, "could": 1043, "order": 1044, "y,": 1045, "eld": 1046, "fam": 1047, "cts": 1048, "bal": 1049, "common": 1050, "mar": 1051, "vari": 1052, "En": 1053, "mole": 1054, "mis": 1055, "aces": 1056, "pattern": 1057, "jo": 1058, "sive": 1059, "hour": 1060, "main": 1061, "fig": 1062, "ution": 1063, "peri": 1064, "text": 1065, "block": 1066, "velo": 1067, "multip": 1068, "uring": 1069, "shap": 1070, "start": 1071, "ref": 1072, "cry": 1073, "NA": 1074, "bin": 1075, "sleep": 1076, "Sun": 1077, "ys": 1078, "hal": 1079, "a.": 1080, "ake": 1081, "rele": 1082, "learning": 1083, "bur": 1084, "flo": 1085, "Al": 1086, "lex": 1087, "unt": 1088, "ton": 1089, "sol": 1090, "50": 1091, "sal": 1092, "reach": 1093, "pack": 1094, "xygen": 1095, "ign": 1096, "ation.": 1097, "gener": 1098, "ati": 1099, "language": 1100, "it,": 1101, "sor": 1102, "round": 1103, "million": 1104, "contro": 1105, "mid": 1106, "To": 1107, "ancient": 1108, "There": 1109, "ual": 1110, "anc": 1111, "ault": 1112, "math": 1113, "load": 1114, "may": 1115, "oud": 1116, "ror": 1117, "step": 1118, "thous": 1119, "don": 1120, "square": 1121, "material": 1122, "keeps": 1123, "1.": 1124, "ild": 1125, "list": 1126, "cold": 1127, "huge": 1128, "stay": 1129, "gram": 1130, "mean": 1131, "sha": 1132, "Most": 1133, "gg": 1134, "natur": 1135, "plic": 1136, "invent": 1137, "oxygen": 1138, "lit": 1139, "great": 1140, "Con": 1141, "pol": 1142, "und": 1143, "fix": 1144, "depend": 1145, "cool": 1146, "const": 1147, "ism": 1148, "oney": 1149, "gu": 1150, "pain": 1151, "few": 1152, "pop": 1153, "Py": 1154, "think": 1155, "sof": 1156, "emp": 1157, "direct": 1158, "volcano": 1159, "one.": 1160, "rel": 1161, "ask": 1162, "travel": 1163, "water.": 1164, "enough": 1165, "wind": 1166, "cho": 1167, "igh": 1168, "zero": 1169, "So": 1170, "git": 1171, "simp": 1172, "actually": 1173, "e.": 1174, "warm": 1175, "table": 1176, "lock": 1177, "drop": 1178, "temper": 1179, "contain": 1180, "eas": 1181, "tool": 1182, "server": 1183, "another": 1184, "60": 1185, "Co": 1186, "computer": 1187, "moon": 1188, "ries": 1189, "tch": 1190, "vir": 1191, "last": 1192, "partic": 1193, "class": 1194, "faster": 1195, "3.": 1196, "universe": 1197, "itself": 1198, "sea": 1199, "arch": 1200, "Ar": 1201, "base": 1202, "write": 1203, "ability": 1204, "valu": 1205, "incl": 1206, "meas": 1207, "pred": 1208, "sunlight": 1209, "clear": 1210, "acti": 1211, "shape": 1212, "ized": 1213, "second": 1214, "em": 1215, "it's": 1216, "med": 1217, "struct": 1218, "numbers": 1219, "default": 1220, "bs": 1221, "spl": 1222, "current": 1223, "cir": 1224, "open": 1225, "user": 1226, "Sp": 1227, "capital": 1228, "ever": 1229, "ather": 1230, "oid": 1231, "ith": 1232, "speed": 1233, "stop": 1234, "them.": 1235, "ases": 1236, "att": 1237, "safe": 1238, "De": 1239, "mic": 1240, "sc": 1241, "group": 1242, "again": 1243, "If": 1244, "giant": 1245, "Un": 1246, "well": 1247, "root": 1248, "bot": 1249, "develo": 1250, "We": 1251, "force": 1252, "sum": 1253, "cells": 1254, "lin": 1255, "da": 1256, "field": 1257, "will": 1258, "ix": 1259, "types": 1260, "fact": 1261, "scal": 1262, "ian": 1263, "inst": 1264, "pie": 1265, "electricity": 1266, "'.": 1267, "runs": 1268, "dev": 1269, "Pro": 1270, "cannot": 1271, "percent": 1272, "ures": 1273, "mode": 1274, "dex": 1275, "thousands": 1276, "shel": 1277, "ident": 1278, "want": 1279, "ation,": 1280, "sion": 1281, "ket": 1282, "30": 1283, "person": 1284, "'re": 1285, "sn": 1286, "itch": 1287, "On": 1288, "green": 1289, "magnet": 1290, "port": 1291, "2,": 1292, "ping": 1293, "war": 1294, "bir": 1295, "ible": 1296, "solar": 1297, "nor": 1298, "ling": 1299, "along": 1300, "serv": 1301, "billion": 1302, "fall": 1303, "gor": 1304, "ship": 1305, "',": 1306, "gravity": 1307, "gives": 1308, "hist": 1309, "ers.": 1310, "little": 1311, "er,": 1312, "15": 1313, "cientists": 1314, "quer": 1315, "until": 1316, "gets": 1317, "half": 1318, "ctor": 1319, "years.": 1320, "ince": 1321, "proper": 1322, "chan": 1323, "short": 1324, "25": 1325, "specific": 1326, "forms": 1327, "special": 1328, "brow": 1329, "PI": 1330, "must": 1331, "4.": 1332, "music": 1333, "Pyth": 1334, "dec": 1335, "cut": 1336, "ited": 1337, "sphere": 1338, "size": 1339, "day.": 1340, "equal": 1341, "nel": 1342, "almost": 1343, "gal": 1344, "metal": 1345, "ency": 1346, "natural": 1347, "ted": 1348, "animals": 1349, "bor": 1350, "turns": 1351, "React": 1352, "JS": 1353, "He": 1354, "causes": 1355, "say": 1356, "16": 1357, "always": 1358, "lid": 1359, "import": 1360, "quid": 1361, "ru": 1362, "chemical": 1363, "moving": 1364, "__": 1365, "que": 1366, "level": 1367, "commun": 1368, "outh": 1369, "effect": 1370, "left": 1371, "my": 1372, "glo": 1373, "famous": 1374, "ment.": 1375, "plain": 1376, "string": 1377, "sour": 1378, "cord": 1379, "liquid": 1380, "ically": 1381, "sometimes": 1382, "clean": 1383, "ones": 1384, "HT": 1385, "acts": 1386, "acid": 1387, "skin": 1388, "living": 1389, "les.": 1390, "Good": 1391, "alk": 1392, "drogen": 1393, "ample:": 1394, "ument": 1395, "illions": 1396, "ago": 1397, "during": 1398, "reads": 1399, "cept": 1400, "exist": 1401, "radi": 1402, "mach": 1403, "being": 1404, "acter": 1405, "contin": 1406, "xt": 1407, "Your": 1408, "repe": 1409, "aren": 1410, "oper": 1411, "ational": 1412, "ress": 1413, "quick": 1414, "plants": 1415, "ava": 1416, "mas": 1417, "take": 1418, "fol": 1419, "shows": 1420, "index": 1421, "exactly": 1422, "his": 1423, "divid": 1424, "tar": 1425, "fra": 1426, "Egy": 1427, "loop": 1428, "tern": 1429, "don't": 1430, "sever": 1431, "came": 1432, "mark": 1433, "colors": 1434, "DNA": 1435, "dra": 1436, "Python": 1437, "super": 1438, "lead": 1439, "eat": 1440, "()": 1441, "Great": 1442, "happen": 1443, "miles": 1444, "igin": 1445, "thod": 1446, "incre": 1447, "avoid": 1448, "her": 1449, "everything": 1450, "rest": 1451, "rap": 1452, "train": 1453, "making": 1454, "allow": 1455, "ris": 1456, "appe": 1457, "Script": 1458, "connection": 1459, "Example:": 1460, "14": 1461, "lect": 1462, "path": 1463, "Earth.": 1464, "had": 1465, "return": 1466, "did": 1467, "origin": 1468, "Po": 1469, "mass": 1470, "New": 1471, "mut": 1472, "Many": 1473, "cloud": 1474, "chain": 1475, "these": 1476, "can't": 1477, "atmo": 1478, "0.": 1479, "plus": 1480, "gar": 1481, "Ad": 1482, "later": 1483, "Because": 1484, "3,": 1485, "ming": 1486, "slowly": 1487, "zing": 1488, "ength": 1489, "pressure": 1490, "neur": 1491, "colum": 1492, "ank": 1493, "fraction": 1494, "ants": 1495, "night": 1496, "dy": 1497, "orts": 1498, "mess": 1499, "subst": 1500, "program": 1501, "since": 1502, "heal": 1503, "method": 1504, "history": 1505, "humans": 1506, "kind": 1507, "bran": 1508, "ments": 1509, "cel": 1510, "bi": 1511, "been": 1512, "motion": 1513, "pres": 1514, "works": 1515, "ies.": 1516, "active": 1517, "atmosphere": 1518, "Each": 1519, "though": 1520, "inform": 1521, "rot": 1522, "TP": 1523, "lea": 1524, "hear": 1525, "...": 1526, "quest": 1527, "plant": 1528, "separ": 1529, "bound": 1530, "API": 1531, "nu": 1532, "moder": 1533, "resp": 1534, "flat": 1535, "treat": 1536, "Rust": 1537, "tract": 1538, "ral": 1539, "carbon": 1540, "rid": 1541, "files": 1542, "ax": 1543, "member": 1544, "invented": 1545, "graph": 1546, "2.": 1547, "running": 1548, "turn": 1549, "spin": 1550, "Ty": 1551, "--": 1552, "range": 1553, "sible": 1554, "mount": 1555, "ices": 1556, "stud": 1557, "based": 1558, "tail": 1559, "control": 1560, "shell": 1561, "error": 1562, "thes": 1563, "via": 1564, "ood": 1565, "ize": 1566, "money": 1567, "several": 1568, "ests": 1569, "hor": 1570, "dark": 1571, "ness": 1572, "cra": 1573, "dig": 1574, "ules": 1575, "temperature": 1576, "on.": 1577, "covered": 1578, "modern": 1579, "minut": 1580, "law": 1581, "split": 1582, "resh": 1583, "days": 1584, "Use": 1585, "example": 1586, "sl": 1587, "zy": 1588, "ets": 1589, "non": 1590, "best": 1591, "black": 1592, "answ": 1593, "layer": 1594, "care": 1595, "hydrogen": 1596, "else": 1597, "takes": 1598, "share": 1599, "heart": 1600, "water,": 1601, "carry": 1602, "Pl": 1603, "oc": 1604, "stat": 1605, "those": 1606, "event": 1607, "mage": 1608, "rows": 1609, "arg": 1610, "pick": 1611, "glow": 1612, "ff": 1613, "ica": 1614, "unit": 1615, "`/": 1616, "('": 1617, "How": 1618, "ove": 1619, "browser": 1620, "QL": 1621, "pair": 1622, "shar": 1623, "og": 1624, "Wor": 1625, "196": 1626, "returns": 1627, "wide": 1628, "next": 1629, "itive": 1630, "vide": 1631, "changes": 1632, "uro": 1633, "light.": 1634, "world.": 1635, "degre": 1636, "link": 1637, "e,": 1638, "ints": 1639, "survi": 1640, "walk": 1641, "lot": 1642, "comput": 1643, "better": 1644, "country": 1645, "17": 1646, "4,": 1647, "meaning": 1648, "branch": 1649, "With": 1650, "smaller": 1651, "nut": 1652, "cop": 1653, "regular": 1654, "(`": 1655, "ference": 1656, "close": 1657, "smallest": 1658, "express": 1659, "stra": 1660, "glish": 1661, "mind": 1662, "stretch": 1663, "CP": 1664, "sho": 1665, "dang": 1666, "Its": 1667, "autom": 1668, "job": 1669, "mix": 1670, "cli": 1671, "create": 1672, "moves": 1673, "communic": 1674, "km": 1675, "din": 1676, "undred": 1677, "English": 1678, "atoms": 1679, "sand": 1680, "Com": 1681, "config": 1682, "map": 1683, "eth": 1684, "health": 1685, "ox": 1686, "ki": 1687, "past": 1688, "sport": 1689, "cat": 1690, "white": 1691, "une": 1692, "tree": 1693, "version": 1694, "cise": 1695, "harm": 1696, "fly": 1697, "condu": 1698, "ude": 1699, "ason": 1700, "hundred": 1701, "stri": 1702, "whe": 1703, "lete": 1704, "rection": 1705, "met": 1706, "har": 1707, "lies": 1708, "(x": 1709, "early": 1710, "yn": 1711, "date": 1712, "Se": 1713, "period": 1714, "follow": 1715, "shaped": 1716, "toward": 1717, "cule": 1718, "catch": 1719, "save": 1720, "system.": 1721, "distance": 1722, "ung": 1723, "bottom": 1724, "molecule": 1725, "context": 1726, "mod": 1727, "80": 1728, "oto": 1729, "salt": 1730, "lives": 1731, "neg": 1732, "you.": 1733, "sed": 1734, "200": 1735, "cer": 1736, "rench": 1737, "centur": 1738, "speak": 1739, "onent": 1740, "mb": 1741, "RE": 1742, "up.": 1743, "9.": 1744, "fail": 1745, "mel": 1746, "patterns": 1747, "life.": 1748, "SS": 1749, "shared": 1750, "SQL": 1751, "entire": 1752, "needs": 1753, "electrons": 1754, "lection": 1755, "sort": 1756, "magnetic": 1757, "apor": 1758, "weight": 1759, "written": 1760, "Euro": 1761, "direction": 1762, "datab": 1763, "thin": 1764, "bigger": 1765, "triangle": 1766, "protein": 1767, "ouch": 1768, "Str": 1769, "objects": 1770, "bits": 1771, "ache": 1772, "produce": 1773, "study": 1774, "Le": 1775, "design": 1776, "bul": 1777, "city": 1778, "spot": 1779, "spread": 1780, "cert": 1781, "sides": 1782, "pur": 1783, "feet": 1784, "Afr": 1785, "biggest": 1786, "trick": 1787, "area": 1788, "nutri": 1789, "record": 1790, "body.": 1791, "bow": 1792, "ray": 1793, "pen": 1794, "absor": 1795, "US": 1796, "rit": 1797, "wall": 1798, "information": 1799, "Sure": 1800, "ded": 1801, "vent": 1802, "HTTP": 1803, "core": 1804, "mountain": 1805, "going": 1806, "win": 1807, "Europe": 1808, "dust": 1809, "really": 1810, "Sure!": 1811, "ured": 1812, "40": 1813, "term": 1814, "values": 1815, "proble": 1816, "deci": 1817, "ie": 1818, "bel": 1819, "ges": 1820, "total": 1821, "give": 1822, "doesn't": 1823, "x.": 1824, "ending": 1825, "mor": 1826, "perfect": 1827, "cons": 1828, "miner": 1829, "others": 1830, "bro": 1831, "alle": 1832, "signal": 1833, "gorout": 1834, "publ": 1835, "O(": 1836, "conver": 1837, "tall": 1838, "neut": 1839, "sil": 1840, "bad": 1841, "happens": 1842, "flu": 1843, "ON": 1844, "stream": 1845, "building": 1846, "apart": 1847, "()`": 1848, "source": 1849, "Pre": 1850, "variable": 1851, "ium": 1852, "tect": 1853, "ought": 1854, "hind": 1855, "ump": 1856, "ond": 1857, "leaves": 1858, "meters": 1859, "ion.": 1860, "ables": 1861, "ired": 1862, "ific": 1863, "ameter": 1864, "rather": 1865, "wee": 1866, "carries": 1867, "cles": 1868, "acc": 1869, "soft": 1870, "world's": 1871, "dle": 1872, "ced": 1873, "esting": 1874, "avor": 1875, "reaction": 1876, "web": 1877, "named": 1878, "cial": 1879, "copy": 1880, "combin": 1881, "uck": 1882, "acteria": 1883, "lip": 1884, "ros": 1885, "These": 1886, "ull": 1887, "ators": 1888, "nothing": 1889, "stars": 1890, "iss": 1891, "ily": 1892, "predict": 1893, "ple": 1894, "length": 1895, "paren": 1896, "sat": 1897, "les,": 1898, "imag": 1899, "waves": 1900, "dou": 1901, "experi": 1902, "against": 1903, "atically": 1904, "store": 1905, "bug": 1906, "dead": 1907, "evol": 1908, "above": 1909, "tre": 1910, "room": 1911, "Type": 1912, "avy": 1913, "access": 1914, "solid": 1915, "ged": 1916, "behind": 1917, "feed": 1918, "ern": 1919, "hol": 1920, "oth": 1921, "bone": 1922, "negative": 1923, "sit": 1924, "builds": 1925, "column": 1926, "includ": 1927, "mostly": 1928, "ense": 1929, "esp": 1930, "ken": 1931, "upiter": 1932, "orbit": 1933, "holds": 1934, "track": 1935, "ican": 1936, "defin": 1937, "That's": 1938, "tty": 1939, "foc": 1940, "outer": 1941, "ramid": 1942, "surround": 1943, "Yes": 1944, "descri": 1945, "powerful": 1946, "command": 1947, "to-": 1948, "thesis": 1949, "swe": 1950, "Amer": 1951, "eyes": 1952, "exc": 1953, "danger": 1954, "piece": 1955, "out.": 1956, "search": 1957, "Java": 1958, "es:": 1959, "smart": 1960, "5,": 1961, "request": 1962, "beha": 1963, "certain": 1964, "writing": 1965, "popular": 1966, "thread": 1967, "ion,": 1968, "90": 1969, "clock": 1970, "straight": 1971, "nearly": 1972, "fresh": 1973, "wrong": 1974, "on,": 1975, "phys": 1976, "swi": 1977, "molecul": 1978, "below": 1979, "pect": 1980, "age.": 1981, "today": 1982, "ults": 1983, "true": 1984, "desert": 1985, "hid": 1986, "wait": 1987, "5.": 1988, "Comp": 1989, "local": 1990, "cross": 1991, "fu": 1992, "mam": 1993, "important": 1994, "tells": 1995, "roughly": 1996, "stack": 1997, "ding": 1998, "cost": 1999}, "id_to_token": {"0": "\n", "1": " ", "2": "!", "3": "\"", "4": "#", "5": "$", "6": "%", "7": "&", "8": "'", "9": "(", "10": ")", "11": "*", "12": "+", "13": ",", "14": "-", "15": ".", "16": "/", "17": "0", "18": "1", "19": "2", "20": "3", "21": "4", "22": "5", "23": "6", "24": "7", "25": "8", "26": "9", "27": ":", "28": ";", "29": "<", "30": "=", "31": ">", "32": "?", "33": "@", "34": "A", "35": "B", "36": "C", "37": "D", "38": "E", "39": "F", "40": "G", "41": "H", "42": "I", "43": "J", "44": "K", "45": "L", "46": "M", "47": "N", "48": "O", "49": "P", "50": "Q", "51": "R", "52": "S", "53": "T", "54": "U", "55": "V", "56": "W", "57": "X", "58": "Y", "59": "Z", "60": "[", "61": "\\", "62": "]", "63": "^", "64": "_", "65": "`", "66": "a", "67": "b", "68": "c", "69": "d", "70": "e", "71": "f", "72": "g", "73": "h", "74": "i", "75": "j", "76": "k", "77": "l", "78": "m", "79": "n", "80": "o", "81": "p", "82": "q", "83": "r", "84": "s", "85": "t", "86": "u", "87": "v", "88": "w", "89": "x", "90": "y", "91": "z", "92": "{", "93": "|", "94": "}", "95": "~", "96": "\u00a3", "97": "\u00ac", "98": "\u00b0", "99": "\u00b1", "100": "\u00b2", "101": "\u00b3", "102": "\u00b5", "103": "\u00b7", "104": "\u00b9", "105": "\u00bc", "106": "\u00bd", "107": "\u00be", "108": "\u00c9", "109": "\u00d7", "110": "\u00df", "111": "\u00e0", "112": "\u00e1", "113": "\u00e3", "114": "\u00e6", "115": "\u00e7", "116": "\u00e8", "117": "\u00e9", "118": "\u00ea", "119": "\u00eb", "120": "\u00ed", "121": "\u00ee", "122": "\u00f1", "123": "\u00f3", "124": "\u00f4", "125": "\u00f6", "126": "\u00f7", "127": "\u00f8", "128": "\u00fa", "129": "\u00fb", "130": "\u00fc", "131": "\u00fe", "132": "\u0101", "133": "\u0107", "134": "\u010c", "135": "\u010d", "136": "\u014d", "137": "\u0151", "138": "\u0159", "139": "\u0177", "140": "\u02be", "141": "\u0394", "142": "\u039b", "143": "\u03a3", "144": "\u03a6", "145": "\u03a9", "146": "\u03b1", "147": "\u03b2", "148": "\u03b5", "149": "\u03b6", "150": "\u03b8", "151": "\u03bc", "152": "\u03c0", "153": "\u03c3", "154": "\u03c6", "155": "\u1d40", "156": "\u1d62", "157": "\u1d9c", "158": "\u1e25", "159": "\u1e63", "160": "\u200d", "161": "\u2013", "162": "\u2014", "163": "\u2026", "164": "\u2070", "165": "\u2074", "166": "\u2075", "167": "\u2076", "168": "\u2078", "169": "\u2079", "170": "\u207a", "171": "\u207b", "172": "\u207f", "173": "\u2080", "174": "\u2081", "175": "\u2082", "176": "\u2083", "177": "\u2084", "178": "\u2086", "179": "\u2099", "180": "\u210f", "181": "\u2135", "182": "\u215b", "183": "\u2192", "184": "\u2194", "185": "\u21d2", "186": "\u2202", "187": "\u2212", "188": "\u221a", "189": "\u221b", "190": "\u221e", "191": "\u2227", "192": "\u2228", "193": "\u2229", "194": "\u222a", "195": "\u222b", "196": "\u2248", "197": "\u2260", "198": "\u2264", "199": "\u2265", "200": "\u230a", "201": "\u230b", "202": "\u270f", "203": "\u27e9", "204": "\u304d", "205": "\u304e", "206": "\u4f98", "207": "\u5bc2", "208": "\u6590", "209": "\u751f", "210": "\u7532", "211": "\u7d99", "212": "\u91d1", "213": "\ufe0f", "214": "\ud83c\udf4c", "215": "\ud83d\udc12", "216": "\ud83d\udc66", "217": "\ud83d\udc67", "218": "\ud83d\udc68", "219": "\ud83d\udc69", "220": "\ud83d\udcac", "221": "\ud83d\udcbb", "222": "\ud83d\udcbe", "223": "\ud83d\udcc1", "224": "\ud83d\udcf7", "225": "\ud83d\udd0c", "226": "\ud83d\udd0d", "227": "\ud83d\ude02", "228": "er", "229": "th", "230": "in", "231": "an", "232": "at", "233": "es", "234": "on", "235": "is", "236": "re", "237": "the", "238": "en", "239": "or", "240": "ou", "241": "al", "242": "ar", "243": "ing", "244": "it", "245": "le", "246": "st", "247": "and", "248": "to", "249": "wh", "250": "ed", "251": "ser", "252": "ro", "253": "ic", "254": "of", "255": "ac", "256": "as", "257": "e:", "258": "Jo", "259": "User", "260": "User:", "261": "Joe:", "262": "he", "263": "ion", "264": "me", "265": "se", "266": "co", "267": "li", "268": "de", "269": "ly", "270": "lo", "271": "ent", "272": "il", "273": "un", "274": "what", "275": "you", "276": "ver", "277": "ve", "278": "ch", "279": "gh", "280": "ra", "281": "ct", "282": "ke", "283": "s.", "284": "for", "285": "ow", "286": "mo", "287": "ur", "288": "be", "289": "are", "290": "ter", "291": "us", "292": "that", "293": "The", "294": "ad", "295": "ge", "296": "ma", "297": "ce", "298": "ts", "299": "mp", "300": "ir", "301": "ab", "302": "so", "303": "ne", "304": "wi", "305": "ul", "306": "ri", "307": "pe", "308": "ti", "309": "can", "310": "ol", "311": "ay", "312": "with", "313": "con", "314": "ut", "315": "ot", "316": "out", "317": "est", "318": "um", "319": "od", "320": "ex", "321": "one", "322": "oun", "323": "ap", "324": "s,", "325": "do", "326": "pl", "327": "all", "328": "si", "329": "am", "330": "ght", "331": "di", "332": "qu", "333": "sh", "334": "ation", "335": "pro", "336": "el", "337": "by", "338": "up", "339": "ther", "340": "'s", "341": "rom", "342": "ess", "343": "es.", "344": "from", "345": "id", "346": "op", "347": "wor", "348": "fe", "349": "like", "350": "sp", "351": "tr", "352": "act", "353": "ater", "354": "use", "355": "ound", "356": "te", "357": "per", "358": "ast", "359": "ate", "360": "00", "361": "ci", "362": "ere", "363": "ca", "364": "its", "365": "we", "366": "ill", "367": "ep", "368": "low", "369": "It", "370": "ld", "371": "ity", "372": "Th", "373": "ong", "374": "ck", "375": "ist", "376": "any", "377": "),", "378": "ach", "379": "der", "380": "ear", "381": "ag", "382": "ure", "383": "your", "384": "not", "385": "ang", "386": "ack", "387": "art", "388": "ber", "389": "fi", "390": "how", "391": "ha", "392": ").", "393": "end", "394": "ust", "395": "ough", "396": "ste", "397": "es,", "398": "ment", "399": "po", "400": "ace", "401": "ant", "402": "ally", "403": "comp", "404": "was", "405": "ain", "406": "bu", "407": "but", "408": "into", "409": "when", "410": "om", "411": "about", "412": "et", "413": "com", "414": "ine", "415": "our", "416": "water", "417": "str", "418": "cl", "419": "hel", "420": "no", "421": "sa", "422": "led", "423": "fo", "424": "ind", "425": "own", "426": "ak", "427": "ig", "428": "cal", "429": "ty", "430": "res", "431": "over", "432": "ard", "433": "very", "434": "light", "435": "row", "436": "ans", "437": "than", "438": "thing", "439": "sy", "440": "ves", "441": "ction", "442": "work", "443": "ite", "444": "red", "445": "ers", "446": "ev", "447": "able", "448": "ue", "449": "way", "450": "im", "451": "vi", "452": "have", "453": "rain", "454": "cause", "455": "ass", "456": "ph", "457": "col", "458": "fer", "459": "spe", "460": "form", "461": "year", "462": "gen", "463": "most", "464": "has", "465": "Wh", "466": "num", "467": "age", "468": "other", "469": "some", "470": "read", "471": "ele", "472": "lar", "473": "su", "474": "them", "475": "tim", "476": "rough", "477": "they", "478": "tw", "479": "number", "480": "who", "481": "ful", "482": "ous", "483": "ich", "484": "reat", "485": "ort", "486": "help", "487": "ll", "488": "time", "489": "go", "490": "ning", "491": "ree", "492": "pr", "493": "bo", "494": "ten", "495": "bl", "496": "cont", "497": "if", "498": "sm", "499": "air", "500": "kn", "501": "tur", "502": "buil", "503": "Ear", "504": "ive", "505": "ry", "506": "ok", "507": "old", "508": "many", "509": "In", "510": "bod", "511": "their", "512": "ting", "513": "more", "514": "av", "515": "gy", "516": "through", "517": "ish", "518": "du", "519": "Earth", "520": "ick", "521": "atter", "522": "cle", "523": "where", "524": "als", "525": "because", "526": "tra", "527": "which", "528": "An", "529": "only", "530": "val", "531": "fl", "532": "ice", "533": "run", "534": "why", "535": "gr", "536": "car", "537": "19", "538": "every", "539": "ions", "540": "stem", "541": "ble", "542": "gra", "543": "day", "544": "body", "545": "long", "546": "cur", "547": "iz", "548": "dat", "549": "app", "550": "ell", "551": "pt", "552": "che", "553": "ight", "554": "two", "555": "get", "556": "ory", "557": "ob", "558": "small", "559": "fir", "560": "ds", "561": "side", "562": "plan", "563": "comm", "564": "ance", "565": "inter", "566": "ould", "567": "des", "568": "sur", "569": "'t", "570": "ink", "571": "ies", "572": "wr", "573": "ren", "574": "ase", "575": "atch", "576": "ile", "577": "ing.", "578": "system", "579": "int", "580": "fun", "581": "back", "582": "used", "583": "ors", "584": "made", "585": "je", "586": "ctr", "587": "ical", "588": "each", "589": "ns", "590": "tal", "591": "net", "592": "This", "593": "ens", "594": "blo", "595": "ople", "596": "ving", "597": "mak", "598": "fast", "599": "called", "600": "first", "601": "hi", "602": "par", "603": "sing", "604": "times", "605": "les", "606": "ange", "607": "same", "608": "dis", "609": "br", "610": "need", "611": "gi", "612": "cent", "613": "ject", "614": "uses", "615": "ces", "616": "af", "617": "cess", "618": "make", "619": "`.", "620": "part", "621": "ame", "622": "even", "623": "bet", "624": "ount", "625": "pre", "626": "bre", "627": "ener", "628": "They", "629": "land", "630": "min", "631": "cre", "632": "dif", "633": "right", "634": "arm", "635": "20", "636": "ence", "637": "ss", "638": "people", "639": "electr", "640": "cor", "641": "ext", "642": "let", "643": "down", "644": "la", "645": "keep", "646": "lear", "647": "hum", "648": "ually", "649": "What", "650": "add", "651": "ated", "652": "gest", "653": "ial", "654": "amp", "655": "ome", "656": "anim", "657": "try", "658": "gre", "659": "tin", "660": "gn", "661": "mu", "662": "energy", "663": "cient", "664": "around", "665": "fr", "666": "using", "667": "vel", "668": "sun", "669": "new", "670": "know", "671": "cell", "672": "under", "673": "ath", "674": "data", "675": "fore", "676": "ps", "677": "vers", "678": "world", "679": "000", "680": "ger", "681": "just", "682": "it.", "683": "equ", "684": "differ", "685": "then", "686": "speci", "687": "au", "688": "mem", "689": "ark", "690": "ary", "691": "imp", "692": "illion", "693": "ari", "694": "years", "695": "ult", "696": "ta", "697": "big", "698": "ons", "699": "set", "700": "brain", "701": "Re", "702": "ed.", "703": "wa", "704": "def", "705": "without", "706": "vol", "707": "pi", "708": "cy", "709": "Mo", "710": "dro", "711": "makes", "712": "does", "713": "sub", "714": "cri", "715": "tiny", "716": "cr", "717": "often", "718": "sk", "719": "space", "720": "mus", "721": "atur", "722": "ing,", "723": "key", "724": "build", "725": "ents", "726": "action", "727": "fic", "728": "tri", "729": "ho", "730": "there", "731": "fil", "732": "man", "733": "sel", "734": "That", "735": "pos", "736": "produ", "737": "ly.", "738": "much", "739": "stead", "740": "feel", "741": "type", "742": "ward", "743": "ef", "744": "star", "745": "squ", "746": "hand", "747": "ross", "748": "ines", "749": "ating", "750": "hy", "751": "ict", "752": "ide", "753": "ved", "754": "clo", "755": "grow", "756": "bon", "757": "food", "758": "10", "759": "code", "760": "mag", "761": "12", "762": "ween", "763": "while", "764": "ins", "765": "different", "766": "between", "767": "ates", "768": "ey", "769": "after", "770": "ush", "771": "ists", "772": "this", "773": "object", "774": "You", "775": "ters", "776": ",000", "777": "gl", "778": "function", "779": "slow", "780": "cap", "781": "St", "782": "ise", "783": "see", "784": "cond", "785": "log", "786": "bas", "787": "mil", "788": "sign", "789": "mal", "790": "face", "791": "before", "792": "inside", "793": "ze", "794": "18", "795": "Go", "796": "iter", "797": "sup", "798": "ia", "799": "fect", "800": "mer", "801": "dep", "802": "press", "803": "ulti", "804": "rect", "805": "patter", "806": "value", "807": "high", "808": "xy", "809": "blood", "810": "also", "811": "exp", "812": "inv", "813": "still", "814": "change", "815": "ud", "816": "):", "817": "were", "818": "angu", "819": "show", "820": "tom", "821": "process", "822": "creat", "823": "ative", "824": ")`", "825": "pow", "826": "off", "827": "tell", "828": "sound", "829": "ip", "830": "atom", "831": "call", "832": "py", "833": "ition", "834": "ft", "835": "reg", "836": "typ", "837": "ends", "838": "mon", "839": "rock", "840": "eng", "841": "ese", "842": "gas", "843": "line", "844": "would", "845": "single", "846": "writ", "847": "less", "848": "look", "849": "cean", "850": "ular", "851": "ven", "852": "dist", "853": "ub", "854": "vity", "855": "find", "856": "lay", "857": "When", "858": "something", "859": "happ", "860": "ls", "861": "langu", "862": "ero", "863": "lets", "864": "pass", "865": "org", "866": "deep", "867": "ks", "868": "atic", "869": "er.", "870": "lim", "871": "instead", "872": "flow", "873": "ature", "874": "animal", "875": "ings", "876": "top", "877": "Ch", "878": "ats", "879": "good", "880": "here", "881": "uni", "882": "For", "883": "requ", "884": "strong", "885": "human", "886": "break", "887": "temp", "888": "retur", "889": "far", "890": "time.", "891": "large", "892": "bit", "893": "life", "894": "near", "895": "nam", "896": "multi", "897": "ator", "898": "hot", "899": "fish", "900": "ner", "901": "s:", "902": "color", "903": "prote", "904": "gether", "905": "stor", "906": "a,", "907": "stand", "908": "both", "909": "ash", "910": "self", "911": "test", "912": "..", "913": "head", "914": "ample", "915": "Ex", "916": "largest", "917": "electric", "918": "real", "919": "hard", "920": "cul", "921": "helps", "922": "across", "923": "built", "924": "too", "925": "ared", "926": "ire", "927": "ped", "928": "pu", "929": "ball", "930": "move", "931": "ose", "932": "chang", "933": "point", "934": "ew", "935": "ts,", "936": "three", "937": "together", "938": "gs", "939": "son", "940": "n't", "941": "talk", "942": "sw", "943": "known", "944": "ital", "945": "Be", "946": "stru", "947": "ages", "948": "vis", "949": "tle", "950": "surface", "951": "ed,", "952": "tion", "953": "ms", "954": "ars", "955": "dr", "956": "check", "957": "leep", "958": "chem", "959": "come", "960": "100", "961": "ocean", "962": "put", "963": "verse", "964": "y.", "965": "place", "966": "match", "967": "`,", "968": "whole", "969": "pri", "970": "ways", "971": "power", "972": "ility", "973": "exact", "974": "cover", "975": "organ", "976": "free", "977": "network", "978": "ert", "979": "char", "980": "name", "981": "play", "982": "grou", "983": "curren", "984": "found", "985": "never", "986": "heat", "987": "dri", "988": "element", "989": "comes", "990": "vid", "991": "coun", "992": "count", "993": "file", "994": "den", "995": "word", "996": "conne", "997": "stre", "998": "ands", "999": "away", "1000": "fin", "1001": "ics", "1002": "learn", "1003": "push", "1004": "It's", "1005": "things", "1006": "rep", "1007": "os", "1008": "mater", "1009": "blue", "1010": "trans", "1011": "compu", "1012": "planet", "1013": "cript", "1014": "ations", "1015": "angle", "1016": "once", "1017": "matter", "1018": "hold", "1019": "cu", "1020": "now", "1021": "ail", "1022": "ore", "1023": "pul", "1024": "volcan", "1025": "memory", "1026": "ron", "1027": "Earth's", "1028": "aw", "1029": "ground", "1030": "Some", "1031": "means", "1032": "hu", "1033": "four", "1034": "syn", "1035": "ly,", "1036": "full", "1037": "akes", "1038": "1,", "1039": "state", "1040": "live", "1041": "No", "1042": "usually", "1043": "could", "1044": "order", "1045": "y,", "1046": "eld", "1047": "fam", "1048": "cts", "1049": "bal", "1050": "common", "1051": "mar", "1052": "vari", "1053": "En", "1054": "mole", "1055": "mis", "1056": "aces", "1057": "pattern", "1058": "jo", "1059": "sive", "1060": "hour", "1061": "main", "1062": "fig", "1063": "ution", "1064": "peri", "1065": "text", "1066": "block", "1067": "velo", "1068": "multip", "1069": "uring", "1070": "shap", "1071": "start", "1072": "ref", "1073": "cry", "1074": "NA", "1075": "bin", "1076": "sleep", "1077": "Sun", "1078": "ys", "1079": "hal", "1080": "a.", "1081": "ake", "1082": "rele", "1083": "learning", "1084": "bur", "1085": "flo", "1086": "Al", "1087": "lex", "1088": "unt", "1089": "ton", "1090": "sol", "1091": "50", "1092": "sal", "1093": "reach", "1094": "pack", "1095": "xygen", "1096": "ign", "1097": "ation.", "1098": "gener", "1099": "ati", "1100": "language", "1101": "it,", "1102": "sor", "1103": "round", "1104": "million", "1105": "contro", "1106": "mid", "1107": "To", "1108": "ancient", "1109": "There", "1110": "ual", "1111": "anc", "1112": "ault", "1113": "math", "1114": "load", "1115": "may", "1116": "oud", "1117": "ror", "1118": "step", "1119": "thous", "1120": "don", "1121": "square", "1122": "material", "1123": "keeps", "1124": "1.", "1125": "ild", "1126": "list", "1127": "cold", "1128": "huge", "1129": "stay", "1130": "gram", "1131": "mean", "1132": "sha", "1133": "Most", "1134": "gg", "1135": "natur", "1136": "plic", "1137": "invent", "1138": "oxygen", "1139": "lit", "1140": "great", "1141": "Con", "1142": "pol", "1143": "und", "1144": "fix", "1145": "depend", "1146": "cool", "1147": "const", "1148": "ism", "1149": "oney", "1150": "gu", "1151": "pain", "1152": "few", "1153": "pop", "1154": "Py", "1155": "think", "1156": "sof", "1157": "emp", "1158": "direct", "1159": "volcano", "1160": "one.", "1161": "rel", "1162": "ask", "1163": "travel", "1164": "water.", "1165": "enough", "1166": "wind", "1167": "cho", "1168": "igh", "1169": "zero", "1170": "So", "1171": "git", "1172": "simp", "1173": "actually", "1174": "e.", "1175": "warm", "1176": "table", "1177": "lock", "1178": "drop", "1179": "temper", "1180": "contain", "1181": "eas", "1182": "tool", "1183": "server", "1184": "another", "1185": "60", "1186": "Co", "1187": "computer", "1188": "moon", "1189": "ries", "1190": "tch", "1191": "vir", "1192": "last", "1193": "partic", "1194": "class", "1195": "faster", "1196": "3.", "1197": "universe", "1198": "itself", "1199": "sea", "1200": "arch", "1201": "Ar", "1202": "base", "1203": "write", "1204": "ability", "1205": "valu", "1206": "incl", "1207": "meas", "1208": "pred", "1209": "sunlight", "1210": "clear", "1211": "acti", "1212": "shape", "1213": "ized", "1214": "second", "1215": "em", "1216": "it's", "1217": "med", "1218": "struct", "1219": "numbers", "1220": "default", "1221": "bs", "1222": "spl", "1223": "current", "1224": "cir", "1225": "open", "1226": "user", "1227": "Sp", "1228": "capital", "1229": "ever", "1230": "ather", "1231": "oid", "1232": "ith", "1233": "speed", "1234": "stop", "1235": "them.", "1236": "ases", "1237": "att", "1238": "safe", "1239": "De", "1240": "mic", "1241": "sc", "1242": "group", "1243": "again", "1244": "If", "1245": "giant", "1246": "Un", "1247": "well", "1248": "root", "1249": "bot", "1250": "develo", "1251": "We", "1252": "force", "1253": "sum", "1254": "cells", "1255": "lin", "1256": "da", "1257": "field", "1258": "will", "1259": "ix", "1260": "types", "1261": "fact", "1262": "scal", "1263": "ian", "1264": "inst", "1265": "pie", "1266": "electricity", "1267": "'.", "1268": "runs", "1269": "dev", "1270": "Pro", "1271": "cannot", "1272": "percent", "1273": "ures", "1274": "mode", "1275": "dex", "1276": "thousands", "1277": "shel", "1278": "ident", "1279": "want", "1280": "ation,", "1281": "sion", "1282": "ket", "1283": "30", "1284": "person", "1285": "'re", "1286": "sn", "1287": "itch", "1288": "On", "1289": "green", "1290": "magnet", "1291": "port", "1292": "2,", "1293": "ping", "1294": "war", "1295": "bir", "1296": "ible", "1297": "solar", "1298": "nor", "1299": "ling", "1300": "along", "1301": "serv", "1302": "billion", "1303": "fall", "1304": "gor", "1305": "ship", "1306": "',", "1307": "gravity", "1308": "gives", "1309": "hist", "1310": "ers.", "1311": "little", "1312": "er,", "1313": "15", "1314": "cientists", "1315": "quer", "1316": "until", "1317": "gets", "1318": "half", "1319": "ctor", "1320": "years.", "1321": "ince", "1322": "proper", "1323": "chan", "1324": "short", "1325": "25", "1326": "specific", "1327": "forms", "1328": "special", "1329": "brow", "1330": "PI", "1331": "must", "1332": "4.", "1333": "music", "1334": "Pyth", "1335": "dec", "1336": "cut", "1337": "ited", "1338": "sphere", "1339": "size", "1340": "day.", "1341": "equal", "1342": "nel", "1343": "almost", "1344": "gal", "1345": "metal", "1346": "ency", "1347": "natural", "1348": "ted", "1349": "animals", "1350": "bor", "1351": "turns", "1352": "React", "1353": "JS", "1354": "He", "1355": "causes", "1356": "say", "1357": "16", "1358": "always", "1359": "lid", "1360": "import", "1361": "quid", "1362": "ru", "1363": "chemical", "1364": "moving", "1365": "__", "1366": "que", "1367": "level", "1368": "commun", "1369": "outh", "1370": "effect", "1371": "left", "1372": "my", "1373": "glo", "1374": "famous", "1375": "ment.", "1376": "plain", "1377": "string", "1378": "sour", "1379": "cord", "1380": "liquid", "1381": "ically", "1382": "sometimes", "1383": "clean", "1384": "ones", "1385": "HT", "1386": "acts", "1387": "acid", "1388": "skin", "1389": "living", "1390": "les.", "1391": "Good", "1392": "alk", "1393": "drogen", "1394": "ample:", "1395": "ument", "1396": "illions", "1397": "ago", "1398": "during", "1399": "reads", "1400": "cept", "1401": "exist", "1402": "radi", "1403": "mach", "1404": "being", "1405": "acter", "1406": "contin", "1407": "xt", "1408": "Your", "1409": "repe", "1410": "aren", "1411": "oper", "1412": "ational", "1413": "ress", "1414": "quick", "1415": "plants", "1416": "ava", "1417": "mas", "1418": "take", "1419": "fol", "1420": "shows", "1421": "index", "1422": "exactly", "1423": "his", "1424": "divid", "1425": "tar", "1426": "fra", "1427": "Egy", "1428": "loop", "1429": "tern", "1430": "don't", "1431": "sever", "1432": "came", "1433": "mark", "1434": "colors", "1435": "DNA", "1436": "dra", "1437": "Python", "1438": "super", "1439": "lead", "1440": "eat", "1441": "()", "1442": "Great", "1443": "happen", "1444": "miles", "1445": "igin", "1446": "thod", "1447": "incre", "1448": "avoid", "1449": "her", "1450": "everything", "1451": "rest", "1452": "rap", "1453": "train", "1454": "making", "1455": "allow", "1456": "ris", "1457": "appe", "1458": "Script", "1459": "connection", "1460": "Example:", "1461": "14", "1462": "lect", "1463": "path", "1464": "Earth.", "1465": "had", "1466": "return", "1467": "did", "1468": "origin", "1469": "Po", "1470": "mass", "1471": "New", "1472": "mut", "1473": "Many", "1474": "cloud", "1475": "chain", "1476": "these", "1477": "can't", "1478": "atmo", "1479": "0.", "1480": "plus", "1481": "gar", "1482": "Ad", "1483": "later", "1484": "Because", "1485": "3,", "1486": "ming", "1487": "slowly", "1488": "zing", "1489": "ength", "1490": "pressure", "1491": "neur", "1492": "colum", "1493": "ank", "1494": "fraction", "1495": "ants", "1496": "night", "1497": "dy", "1498": "orts", "1499": "mess", "1500": "subst", "1501": "program", "1502": "since", "1503": "heal", "1504": "method", "1505": "history", "1506": "humans", "1507": "kind", "1508": "bran", "1509": "ments", "1510": "cel", "1511": "bi", "1512": "been", "1513": "motion", "1514": "pres", "1515": "works", "1516": "ies.", "1517": "active", "1518": "atmosphere", "1519": "Each", "1520": "though", "1521": "inform", "1522": "rot", "1523": "TP", "1524": "lea", "1525": "hear", "1526": "...", "1527": "quest", "1528": "plant", "1529": "separ", "1530": "bound", "1531": "API", "1532": "nu", "1533": "moder", "1534": "resp", "1535": "flat", "1536": "treat", "1537": "Rust", "1538": "tract", "1539": "ral", "1540": "carbon", "1541": "rid", "1542": "files", "1543": "ax", "1544": "member", "1545": "invented", "1546": "graph", "1547": "2.", "1548": "running", "1549": "turn", "1550": "spin", "1551": "Ty", "1552": "--", "1553": "range", "1554": "sible", "1555": "mount", "1556": "ices", "1557": "stud", "1558": "based", "1559": "tail", "1560": "control", "1561": "shell", "1562": "error", "1563": "thes", "1564": "via", "1565": "ood", "1566": "ize", "1567": "money", "1568": "several", "1569": "ests", "1570": "hor", "1571": "dark", "1572": "ness", "1573": "cra", "1574": "dig", "1575": "ules", "1576": "temperature", "1577": "on.", "1578": "covered", "1579": "modern", "1580": "minut", "1581": "law", "1582": "split", "1583": "resh", "1584": "days", "1585": "Use", "1586": "example", "1587": "sl", "1588": "zy", "1589": "ets", "1590": "non", "1591": "best", "1592": "black", "1593": "answ", "1594": "layer", "1595": "care", "1596": "hydrogen", "1597": "else", "1598": "takes", "1599": "share", "1600": "heart", "1601": "water,", "1602": "carry", "1603": "Pl", "1604": "oc", "1605": "stat", "1606": "those", "1607": "event", "1608": "mage", "1609": "rows", "1610": "arg", "1611": "pick", "1612": "glow", "1613": "ff", "1614": "ica", "1615": "unit", "1616": "`/", "1617": "('", "1618": "How", "1619": "ove", "1620": "browser", "1621": "QL", "1622": "pair", "1623": "shar", "1624": "og", "1625": "Wor", "1626": "196", "1627": "returns", "1628": "wide", "1629": "next", "1630": "itive", "1631": "vide", "1632": "changes", "1633": "uro", "1634": "light.", "1635": "world.", "1636": "degre", "1637": "link", "1638": "e,", "1639": "ints", "1640": "survi", "1641": "walk", "1642": "lot", "1643": "comput", "1644": "better", "1645": "country", "1646": "17", "1647": "4,", "1648": "meaning", "1649": "branch", "1650": "With", "1651": "smaller", "1652": "nut", "1653": "cop", "1654": "regular", "1655": "(`", "1656": "ference", "1657": "close", "1658": "smallest", "1659": "express", "1660": "stra", "1661": "glish", "1662": "mind", "1663": "stretch", "1664": "CP", "1665": "sho", "1666": "dang", "1667": "Its", "1668": "autom", "1669": "job", "1670": "mix", "1671": "cli", "1672": "create", "1673": "moves", "1674": "communic", "1675": "km", "1676": "din", "1677": "undred", "1678": "English", "1679": "atoms", "1680": "sand", "1681": "Com", "1682": "config", "1683": "map", "1684": "eth", "1685": "health", "1686": "ox", "1687": "ki", "1688": "past", "1689": "sport", "1690": "cat", "1691": "white", "1692": "une", "1693": "tree", "1694": "version", "1695": "cise", "1696": "harm", "1697": "fly", "1698": "condu", "1699": "ude", "1700": "ason", "1701": "hundred", "1702": "stri", "1703": "whe", "1704": "lete", "1705": "rection", "1706": "met", "1707": "har", "1708": "lies", "1709": "(x", "1710": "early", "1711": "yn", "1712": "date", "1713": "Se", "1714": "period", "1715": "follow", "1716": "shaped", "1717": "toward", "1718": "cule", "1719": "catch", "1720": "save", "1721": "system.", "1722": "distance", "1723": "ung", "1724": "bottom", "1725": "molecule", "1726": "context", "1727": "mod", "1728": "80", "1729": "oto", "1730": "salt", "1731": "lives", "1732": "neg", "1733": "you.", "1734": "sed", "1735": "200", "1736": "cer", "1737": "rench", "1738": "centur", "1739": "speak", "1740": "onent", "1741": "mb", "1742": "RE", "1743": "up.", "1744": "9.", "1745": "fail", "1746": "mel", "1747": "patterns", "1748": "life.", "1749": "SS", "1750": "shared", "1751": "SQL", "1752": "entire", "1753": "needs", "1754": "electrons", "1755": "lection", "1756": "sort", "1757": "magnetic", "1758": "apor", "1759": "weight", "1760": "written", "1761": "Euro", "1762": "direction", "1763": "datab", "1764": "thin", "1765": "bigger", "1766": "triangle", "1767": "protein", "1768": "ouch", "1769": "Str", "1770": "objects", "1771": "bits", "1772": "ache", "1773": "produce", "1774": "study", "1775": "Le", "1776": "design", "1777": "bul", "1778": "city", "1779": "spot", "1780": "spread", "1781": "cert", "1782": "sides", "1783": "pur", "1784": "feet", "1785": "Afr", "1786": "biggest", "1787": "trick", "1788": "area", "1789": "nutri", "1790": "record", "1791": "body.", "1792": "bow", "1793": "ray", "1794": "pen", "1795": "absor", "1796": "US", "1797": "rit", "1798": "wall", "1799": "information", "1800": "Sure", "1801": "ded", "1802": "vent", "1803": "HTTP", "1804": "core", "1805": "mountain", "1806": "going", "1807": "win", "1808": "Europe", "1809": "dust", "1810": "really", "1811": "Sure!", "1812": "ured", "1813": "40", "1814": "term", "1815": "values", "1816": "proble", "1817": "deci", "1818": "ie", "1819": "bel", "1820": "ges", "1821": "total", "1822": "give", "1823": "doesn't", "1824": "x.", "1825": "ending", "1826": "mor", "1827": "perfect", "1828": "cons", "1829": "miner", "1830": "others", "1831": "bro", "1832": "alle", "1833": "signal", "1834": "gorout", "1835": "publ", "1836": "O(", "1837": "conver", "1838": "tall", "1839": "neut", "1840": "sil", "1841": "bad", "1842": "happens", "1843": "flu", "1844": "ON", "1845": "stream", "1846": "building", "1847": "apart", "1848": "()`", "1849": "source", "1850": "Pre", "1851": "variable", "1852": "ium", "1853": "tect", "1854": "ought", "1855": "hind", "1856": "ump", "1857": "ond", "1858": "leaves", "1859": "meters", "1860": "ion.", "1861": "ables", "1862": "ired", "1863": "ific", "1864": "ameter", "1865": "rather", "1866": "wee", "1867": "carries", "1868": "cles", "1869": "acc", "1870": "soft", "1871": "world's", "1872": "dle", "1873": "ced", "1874": "esting", "1875": "avor", "1876": "reaction", "1877": "web", "1878": "named", "1879": "cial", "1880": "copy", "1881": "combin", "1882": "uck", "1883": "acteria", "1884": "lip", "1885": "ros", "1886": "These", "1887": "ull", "1888": "ators", "1889": "nothing", "1890": "stars", "1891": "iss", "1892": "ily", "1893": "predict", "1894": "ple", "1895": "length", "1896": "paren", "1897": "sat", "1898": "les,", "1899": "imag", "1900": "waves", "1901": "dou", "1902": "experi", "1903": "against", "1904": "atically", "1905": "store", "1906": "bug", "1907": "dead", "1908": "evol", "1909": "above", "1910": "tre", "1911": "room", "1912": "Type", "1913": "avy", "1914": "access", "1915": "solid", "1916": "ged", "1917": "behind", "1918": "feed", "1919": "ern", "1920": "hol", "1921": "oth", "1922": "bone", "1923": "negative", "1924": "sit", "1925": "builds", "1926": "column", "1927": "includ", "1928": "mostly", "1929": "ense", "1930": "esp", "1931": "ken", "1932": "upiter", "1933": "orbit", "1934": "holds", "1935": "track", "1936": "ican", "1937": "defin", "1938": "That's", "1939": "tty", "1940": "foc", "1941": "outer", "1942": "ramid", "1943": "surround", "1944": "Yes", "1945": "descri", "1946": "powerful", "1947": "command", "1948": "to-", "1949": "thesis", "1950": "swe", "1951": "Amer", "1952": "eyes", "1953": "exc", "1954": "danger", "1955": "piece", "1956": "out.", "1957": "search", "1958": "Java", "1959": "es:", "1960": "smart", "1961": "5,", "1962": "request", "1963": "beha", "1964": "certain", "1965": "writing", "1966": "popular", "1967": "thread", "1968": "ion,", "1969": "90", "1970": "clock", "1971": "straight", "1972": "nearly", "1973": "fresh", "1974": "wrong", "1975": "on,", "1976": "phys", "1977": "swi", "1978": "molecul", "1979": "below", "1980": "pect", "1981": "age.", "1982": "today", "1983": "ults", "1984": "true", "1985": "desert", "1986": "hid", "1987": "wait", "1988": "5.", "1989": "Comp", "1990": "local", "1991": "cross", "1992": "fu", "1993": "mam", "1994": "important", "1995": "tells", "1996": "roughly", "1997": "stack", "1998": "ding", "1999": "cost"}}